<unk>	0
<s>	0
</s>	0
▁t	-0
he	-1
▁a	-2
in	-3
▁the	-4
▁w	-5
▁s	-6
▁o	-7
re	-8
nd	-9
▁h	-10
er	-11
ou	-12
is	-13
▁b	-14
at	-15
ed	-16
▁m	-17
os	-18
▁f	-19
it	-20
▁c	-21
en	-22
▁and	-23
on	-24
▁of	-25
▁to	-26
ing	-27
or	-28
▁d	-29
es	-30
▁th	-31
eos	-32
▁<	-33
an	-34
ll	-35
ar	-36
▁p	-37
as	-38
▁in	-39
▁he	-40
▁l	-41
▁n	-42
om	-43
▁ha	-44
le	-45
▁be	-46
▁g	-47
▁I	-48
ic	-49
ot	-50
▁wh	-51
▁e	-52
▁“	-53
ow	-54
ut	-55
im	-56
id	-57
▁y	-58
ve	-59
ly	-60
▁re	-61
▁that	-62
▁T	-63
us	-64
▁on	-65
ld	-66
ent	-67
ce	-68
▁you	-69
▁was	-70
▁his	-71
gh	-72
ith	-73
ion	-74
et	-75
ay	-76
▁with	-77
al	-78
▁it	-79
ir	-80
ver	-81
ad	-82
▁as	-83
▁is	-84
ur	-85
se	-86
▁for	-87
▁not	-88
▁st	-89
▁A	-90
▁r	-91
ght	-92
▁we	-93
▁sa	-94
▁had	-95
her	-96
ch	-97
▁u	-98
▁an	-99
ct	-100
▁The	-101
ill	-102
▁at	-103
▁him	-104
ri	-105
ain	-106
▁M	-107
oo	-108
st	-109
▁se	-110
▁sh	-111
▁her	-112
am	-113
ich	-114
▁H	-115
ter	-116
▁me	-117
ould	-118
ro	-119
all	-120
ke	-121
if	-122
▁S	-123
ess	-124
.”	-125
▁which	-126
red	-127
▁de	-128
il	-129
▁so	-130
▁fr	-131
▁have	-132
▁all	-133
▁P	-134
ight	-135
ore	-136
▁my	-137
▁su	-138
▁C	-139
▁said	-140
pe	-141
▁B	-142
▁but	-143
▁by	-144
ac	-145
▁con	-146
ard	-147
▁this	-148
th	-149
▁from	-150
▁or	-151
ome	-152
qu	-153
and	-154
▁W	-155
ul	-156
▁k	-157
ge	-158
▁do	-159
ble	-160
ant	-161
▁v	-162
▁whe	-163
▁who	-164
▁she	-165
▁ex	-166
res	-167
ust	-168
ous	-169
ap	-170
▁man	-171
,”	-172
▁are	-173
▁one	-174
ation	-175
te	-176
▁they	-177
ers	-178
ist	-179
est	-180
▁ne	-181
▁up	-182
lf	-183
▁were	-184
nt	-185
▁fe	-186
▁al	-187
ound	-188
▁ch	-189
our	-190
pp	-191
▁He	-192
▁li	-193
em	-194
very	-195
ast	-196
ol	-197
▁will	-198
out	-199
▁them	-200
ind	-201
ra	-202
▁G	-203
ong	-204
ate	-205
▁no	-206
▁F	-207
ood	-208
art	-209
▁wor	-210
▁there	-211
ie	-212
ak	-213
▁N	-214
▁com	-215
▁kn	-216
▁ar	-217
ose	-218
un	-219
one	-220
▁D	-221
▁le	-222
um	-223
?”	-224
ort	-225
self	-226
ost	-227
ig	-228
▁ab	-229
▁their	-230
▁go	-231
ther	-232
ame	-233
▁And	-234
ven	-235
ect	-236
▁your	-237
▁j	-238
▁been	-239
▁when	-240
ked	-241
▁out	-242
▁would	-243
▁ag	-244
▁L	-245
ough	-246
ive	-247
▁tr	-248
▁int	-249
▁what	-250
ide	-251
hed	-252
▁un	-253
op	-254
▁O	-255
ity	-256
ine	-257
reat	-258
own	-259
▁sp	-260
▁us	-261
▁Th	-262
▁E	-263
▁any	-264
ck	-265
urn	-266
pl	-267
ell	-268
▁pl	-269
ag	-270
ace	-271
▁am	-272
▁R	-273
ure	-274
▁pr	-275
▁pro	-276
od	-277
▁more	-278
itt	-279
▁qu	-280
ep	-281
ount	-282
ved	-283
ice	-284
▁other	-285
ass	-286
hing	-287
el	-288
ack	-289
▁if	-290
▁into	-291
▁can	-292
able	-293
nder	-294
ber	-295
ance	-296
▁then	-297
ake	-298
▁has	-299
▁tim	-300
▁some	-301
!”	-302
▁af	-303
▁im	-304
▁V	-305
ies	-306
pt	-307
ry	-308
▁tw	-309
ire	-310
▁could	-311
▁dis	-312
▁ad	-313
▁know	-314
ove	-315
ars	-316
▁br	-317
ab	-318
▁hand	-319
ue	-320
ook	-321
▁ro	-322
cc	-323
ite	-324
are	-325
▁did	-326
▁now	-327
ree	-328
▁J	-329
▁like	-330
▁cl	-331
other	-332
▁gr	-333
ought	-334
▁bl	-335
way	-336
▁en	-337
ress	-338
▁see	-339
ade	-340
ence	-341
fore	-342
ied	-343
▁only	-344
au	-345
▁say	-346
ang	-347
▁again	-348
ather	-349
age	-350
▁It	-351
ving	-352
oss	-353
▁very	-354
wn	-355
▁than	-356
ci	-357
hat	-358
▁over	-359
ier	-360
▁time	-361
tain	-362
ated	-363
ment	-364
▁But	-365
▁fl	-366
▁about	-367
▁too	-368
per	-369
▁should	-370
ish	-371
ile	-372
▁day	-373
ink	-374
ond	-375
ud	-376
▁off	-377
▁‘	-378
▁po	-379
--	-380
ary	-381
ach	-382
▁our	-383
▁must	-384
ally	-385
▁per	-386
ered	-387
▁rem	-388
ves	-389
ren	-390
▁himself	-391
▁may	-392
▁fir	-393
..	-394
ff	-395
▁every	-396
▁Y	-397
ings	-398
ious	-399
ions	-400
▁ey	-401
▁great	-402
ward	-403
▁thr	-404
▁two	-405
me	-406
▁under	-407
ittle	-408
▁long	-409
▁sm	-410
ife	-411
▁pe	-412
ful	-413
▁before	-414
ans	-415
cl	-416
▁des	-417
▁how	-418
▁good	-419
▁str	-420
▁pre	-421
ness	-422
▁little	-423
▁down	-424
oll	-425
ath	-426
▁old	-427
ull	-428
anc	-429
ty	-430
▁gl	-431
iz	-432
ince	-433
hen	-434
ise	-435
▁count	-436
bl	-437
ave	-438
ject	-439
▁beg	-440
▁these	-441
▁after	-442
▁seem	-443
uch	-444
▁upon	-445
▁spe	-446
▁first	-447
old	-448
aus	-449
▁even	-450
▁_	-451
▁thought	-452
▁cr	-453
▁arm	-454
▁such	-455
▁men	-456
▁made	-457
ft	-458
rie	-459
ign	-460
▁bec	-461
▁where	-462
ried	-463
ng	-464
▁part	-465
▁shall	-466
▁own	-467
▁way	-468
▁fa	-469
▁pass	-470
ark	-471
ild	-472
▁went	-473
▁its	-474
ip	-475
ouse	-476
▁just	-477
▁In	-478
▁came	-479
ning	-480
▁work	-481
▁let	-482
ds	-483
rew	-484
▁head	-485
ened	-486
ted	-487
▁ent	-488
▁eyes	-489
▁res	-490
ick	-491
▁turn	-492
ne	-493
▁come	-494
▁ret	-495
▁without	-496
▁sc	-497
ons	-498
▁comp	-499
▁much	-500
▁still	-501
▁back	-502
oy	-503
▁cont	-504
▁think	-505
▁look	-506
we	-507
▁acc	-508
ors	-509
▁bet	-510
omet	-511
▁(	-512
read	-513
▁those	-514
▁same	-515
iv	-516
▁op	-517
▁ind	-518
▁here	-519
▁well	-520
so	-521
ord	-522
ible	-523
▁through	-524
▁ob	-525
led	-526
ale	-527
▁ap	-528
▁imp	-529
▁away	-530
▁might	-531
▁sl	-532
▁She	-533
ase	-534
▁never	-535
▁house	-536
ER	-537
ily	-538
less	-539
▁dist	-540
▁Then	-541
ared	-542
▁1	-543
▁St	-544
▁father	-545
▁lo	-546
sh	-547
▁comm	-548
ause	-549
▁life	-550
ean	-551
▁cons	-552
▁Pr	-553
▁car	-554
▁young	-555
▁pres	-556
thing	-557
▁Ch	-558
▁wr	-559
aking	-560
cess	-561
▁somet	-562
▁most	-563
▁happ	-564
ian	-565
▁call	-566
riend	-567
orm	-568
hes	-569
▁This	-570
▁being	-571
fe	-572
▁nothing	-573
pect	-574
▁last	-575
▁saw	-576
air	-577
hy	-578
▁ye	-579
oment	-580
▁moment	-581
man	-582
here	-583
▁ser	-584
▁friend	-585
▁make	-586
av	-587
▁room	-588
▁bel	-589
ory	-590
▁wat	-591
▁app	-592
▁There	-593
▁door	-594
ener	-595
▁repl	-596
arm	-597
▁ord	-598
▁att	-599
▁night	-600
▁left	-601
▁form	-602
▁tell	-603
▁took	-604
▁seemed	-605
▁another	-606
▁end	-607
atter	-608
ertain	-609
▁face	-610
.’	-611
iss	-612
▁ter	-613
▁em	-614
ows	-615
▁rep	-616
▁right	-617
▁ke	-618
ations	-619
▁mar	-620
▁la	-621
▁though	-622
▁K	-623
▁rec	-624
▁light	-625
▁te	-626
ret	-627
ished	-628
vent	-629
▁appe	-630
▁once	-631
▁found	-632
▁U	-633
ix	-634
▁get	-635
int	-636
▁Pro	-637
ced	-638
▁return	-639
▁take	-640
▁read	-641
▁You	-642
▁bo	-643
uten	-644
ult	-645
▁heard	-646
ever	-647
▁co	-648
ction	-649
ner	-650
▁They	-651
ooked	-652
ently	-653
igh	-654
ople	-655
▁child	-656
oth	-657
HA	-658
▁cour	-659
▁Al	-660
▁yet	-661
berg	-662
ict	-663
▁At	-664
▁while	-665
og	-666
ither	-667
▁When	-668
ari	-669
ition	-670
owed	-671
sel	-672
fort	-673
wards	-674
utenberg	-675
▁vo	-676
▁replied	-677
amp	-678
▁asked	-679
▁wom	-680
ru	-681
TER	-682
▁three	-683
▁exp	-684
▁As	-685
▁looked	-686
ens	-687
aught	-688
▁Mr	-689
ierre	-690
▁pers	-691
▁sec	-692
lt	-693
ont	-694
the	-695
▁foll	-696
▁inst	-697
den	-698
ov	-699
alk	-700
▁ple	-701
▁people	-702
▁sw	-703
ank	-704
▁whole	-705
▁heart	-706
▁hands	-707
▁ear	-708
▁Pierre	-709
▁add	-710
▁began	-711
▁place	-712
▁wa	-713
ock	-714
▁want	-715
▁fell	-716
▁poss	-717
▁set	-718
▁mind	-719
▁whom	-720
ates	-721
▁CHA	-722
The	-723
▁inf	-724
▁something	-725
▁round	-726
ew	-727
right	-728
sw	-729
PTER	-730
▁CHAPTER	-731
▁supp	-732
▁cor	-733
▁[	-734
ange	-735
rib	-736
ways	-737
ower	-738
▁side	-739
▁feel	-740
▁love	-741
▁Gutenberg	-742
▁wind	-743
▁seen	-744
▁put	-745
ited	-746
ched	-747
ail	-748
▁many	-749
cept	-750
▁"	-751
▁sil	-752
▁Wh	-753
▁reg	-754
▁answ	-755
▁rest	-756
▁gi	-757
▁gener	-758
You	-759
▁hor	-760
▁ac	-761
▁ass	-762
▁mor	-763
not	-764
▁sur	-765
▁underst	-766
▁give	-767
▁What	-768
▁also	-769
▁Val	-770
▁dra	-771
▁gu	-772
▁war	-773
▁Project	-774
▁Fr	-775
ained	-776
und	-777
ps	-778
oul	-779
cy	-780
▁beh	-781
▁new	-782
▁each	-783
▁always	-784
rist	-785
▁ins	-786
ired	-787
What	-788
▁felt	-789
▁conf	-790
ole	-791
▁against	-792
oke	-793
▁So	-794
▁sat	-795
most	-796
act	-797
cei	-798
▁We	-799
uck	-800
▁cap	-801
▁soon	-802
▁inte	-803
ense	-804
▁ref	-805
▁things	-806
▁nat	-807
row	-808
ined	-809
iness	-810
les	-811
ged	-812
get	-813
▁If	-814
▁ever	-815
ating	-816
ised	-817
fect	-818
▁dif	-819
aken	-820
▁sle	-821
▁ev	-822
ting	-823
▁voice	-824
▁having	-825
ief	-826
ody	-827
ical	-828
▁Prince	-829
▁find	-830
▁On	-831
ial	-832
vers	-833
ute	-834
▁sub	-835
▁near	-836
▁son	-837
▁words	-838
ield	-839
▁name	-840
Yes	-841
▁dear	-842
li	-843
▁told	-844
ple	-845
aps	-846
▁tre	-847
▁world	-848
▁mother	-849
▁His	-850
▁going	-851
▁full	-852
▁thing	-853
▁certain	-854
az	-855
ying	-856
▁don	-857
▁pur	-858
▁turned	-859
▁because	-860
▁far	-861
owing	-862
ual	-863
▁occ	-864
▁done	-865
▁To	-866
rench	-867
ween	-868
▁inter	-869
▁fo	-870
▁quite	-871
▁cle	-872
ides	-873
▁death	-874
tle	-875
ister	-876
ope	-877
▁God	-878
▁both	-879
osed	-880
▁rel	-881
▁mon	-882
▁dr	-883
▁pleas	-884
ern	-885
▁fall	-886
▁soul	-887
▁hour	-888
▁vis	-889
▁That	-890
▁hum	-891
ling	-892
▁cried	-893
up	-894
ene	-895
eth	-896
▁myself	-897
▁ship	-898
ery	-899
aven	-900
▁between	-901
And	-902
uss	-903
ung	-904
▁For	-905
▁No	-906
▁adv	-907
uth	-908
aring	-909
▁called	-910
▁does	-911
▁ide	-912
▁present	-913
ls	-914
▁knew	-915
rave	-916
▁morning	-917
aint	-918
aut	-919
oud	-920
selves	-921
▁nor	-922
▁inc	-923
oun	-924
▁word	-925
its	-926
▁bed	-927
▁mo	-928
arge	-929
▁French	-930
▁cannot	-931
rest	-932
▁open	-933
ille	-934
▁ele	-935
xt	-936
ib	-937
▁che	-938
,’	-939
ressed	-940
▁contin	-941
▁kind	-942
ug	-943
▁order	-944
ued	-945
arius	-946
▁fore	-947
▁Mad	-948
pped	-949
▁Mor	-950
ures	-951
▁el	-952
▁point	-953
▁hel	-954
▁dead	-955
ason	-956
▁years	-957
▁sort	-958
▁gave	-959
▁dou	-960
▁act	-961
dden	-962
ured	-963
▁ste	-964
▁stand	-965
ular	-966
▁Marius	-967
▁sk	-968
▁almost	-969
▁woman	-970
nded	-971
▁quest	-972
▁towards	-973
▁understand	-974
ering	-975
sha	-976
▁half	-977
▁bar	-978
▁bre	-979
It	-980
▁es	-981
▁Mon	-982
▁few	-983
▁care	-984
▁hard	-985
▁fam	-986
▁An	-987
ks	-988
▁mean	-989
▁matter	-990
▁disc	-991
ention	-992
▁among	-993
▁sent	-994
▁home	-995
▁sudden	-996
atá	-997
ins	-998
▁gir	-999
ready	-1000
▁Be	-1001
▁passed	-1002
▁got	-1003
▁air	-1004
▁imm	-1005
▁poor	-1006
als	-1007
ces	-1008
▁dark	-1009
▁anything	-1010
TM	-1011
▁stood	-1012
ceived	-1013
▁hon	-1014
▁four	-1015
II	-1016
▁alone	-1017
▁cur	-1018
▁thy	-1019
▁behind	-1020
HE	-1021
Well	-1022
▁sun	-1023
▁true	-1024
▁already	-1025
▁GutenbergTM	-1026
▁person	-1027
▁herself	-1028
▁speak	-1029
▁offic	-1030
,—	-1031
▁better	-1032
▁del	-1033
ats	-1034
▁sir	-1035
...	-1036
ream	-1037
▁lay	-1038
▁aw	-1039
▁small	-1040
aced	-1041
tered	-1042
▁suff	-1043
atásha	-1044
ets	-1045
▁art	-1046
ached	-1047
▁dire	-1048
▁arms	-1049
Oh	-1050
bt	-1051
:—	-1052
▁sound	-1053
▁*	-1054
▁since	-1055
▁taken	-1056
ub	-1057
ctor	-1058
▁thus	-1059
▁eff	-1060
▁Jean	-1061
▁others	-1062
ette	-1063
▁bat	-1064
▁Natásha	-1065
▁sim	-1066
aughter	-1067
ron	-1068
▁bro	-1069
▁law	-1070
▁best	-1071
oc	-1072
▁days	-1073
▁serv	-1074
▁hear	-1075
aid	-1076
▁letter	-1077
▁belie	-1078
▁prin	-1079
ey	-1080
▁All	-1081
▁black	-1082
óv	-1083
▁wall	-1084
▁sing	-1085
▁sea	-1086
uc	-1087
men	-1088
irt	-1089
ten	-1090
▁ra	-1091
▁sold	-1092
ents	-1093
haps	-1094
▁white	-1095
▁mis	-1096
na	-1097
▁inv	-1098
▁lad	-1099
ately	-1100
▁Monte	-1101
▁Andrew	-1102
▁talk	-1103
ants	-1104
▁longer	-1105
▁fur	-1106
aster	-1107
risto	-1108
▁whose	-1109
▁sign	-1110
▁ph	-1111
▁fire	-1112
▁Cristo	-1113
rel	-1114
▁red	-1115
▁cop	-1116
▁dep	-1117
00	-1118
ized	-1119
▁min	-1120
ains	-1121
▁heaven	-1122
▁water	-1123
gth	-1124
ably	-1125
ully	-1126
jean	-1127
▁fear	-1128
▁everything	-1129
▁power	-1130
ia	-1131
▁Valjean	-1132
▁Ar	-1133
▁Em	-1134
ments	-1135
▁ask	-1136
illed	-1137
▁keep	-1138
▁along	-1139
ms	-1140
▁beaut	-1141
▁hold	-1142
▁Ville	-1143
iting	-1144
uring	-1145
▁wife	-1146
pr	-1147
ès	-1148
▁ground	-1149
▁Rost	-1150
▁Villefort	-1151
▁command	-1152
▁use	-1153
▁X	-1154
▁thir	-1155
No	-1156
▁sleep	-1157
But	-1158
▁brought	-1159
▁second	-1160
▁Now	-1161
▁till	-1162
▁inde	-1163
He	-1164
aris	-1165
akes	-1166
▁gent	-1167
▁less	-1168
▁army	-1169
that	-1170
aces	-1171
▁general	-1172
▁wo	-1173
ety	-1174
▁ir	-1175
▁however	-1176
ph	-1177
▁det	-1178
ash	-1179
ok	-1180
▁reason	-1181
▁express	-1182
▁wish	-1183
anger	-1184
▁high	-1185
▁country	-1186
▁With	-1187
▁whale	-1188
▁help	-1189
aim	-1190
▁cond	-1191
edi	-1192
▁whether	-1193
ians	-1194
▁saying	-1195
▁pol	-1196
ceed	-1197
fully	-1198
une	-1199
▁run	-1200
▁step	-1201
▁list	-1202
ater	-1203
▁king	-1204
▁real	-1205
▁fact	-1206
by	-1207
ution	-1208
unt	-1209
▁prom	-1210
▁themselves	-1211
▁opp	-1212
osette	-1213
▁given	-1214
▁need	-1215
▁looking	-1216
▁aff	-1217
riage	-1218
▁chief	-1219
ract	-1220
rent	-1221
ss	-1222
app	-1223
land	-1224
▁abs	-1225
▁ill	-1226
▁arri	-1227
▁sure	-1228
day	-1229
▁ang	-1230
▁adm	-1231
▁ext	-1232
▁obs	-1233
gether	-1234
▁leave	-1235
▁evening	-1236
▁together	-1237
br	-1238
iled	-1239
▁returned	-1240
tem	-1241
----	-1242
▁human	-1243
▁Cosette	-1244
▁One	-1245
▁unt	-1246
▁gentle	-1247
oney	-1248
▁enough	-1249
undred	-1250
▁rather	-1251
▁bes	-1252
▁How	-1253
▁fin	-1254
▁enem	-1255
▁appro	-1256
▁large	-1257
▁Rostóv	-1258
▁question	-1259
▁suddenly	-1260
▁answered	-1261
rible	-1262
ison	-1263
imes	-1264
▁draw	-1265
▁sight	-1266
▁My	-1267
▁dest	-1268
ided	-1269
▁bus	-1270
▁feet	-1271
▁table	-1272
▁num	-1273
iew	-1274
▁gone	-1275
▁hundred	-1276
▁dec	-1277
ude	-1278
lars	-1279
▁par	-1280
▁course	-1281
▁deep	-1282
▁girl	-1283
ousand	-1284
ances	-1285
ching	-1286
▁thou	-1287
▁cal	-1288
ement	-1289
ident	-1290
▁mid	-1291
▁appear	-1292
ny	-1293
▁why	-1294
ities	-1295
aw	-1296
anglars	-1297
▁entered	-1298
▁cir	-1299
▁dro	-1300
▁next	-1301
du	-1302
▁doubt	-1303
▁thousand	-1304
▁blood	-1305
▁sister	-1306
ax	-1307
▁gold	-1308
▁Danglars	-1309
roy	-1310
ton	-1311
▁char	-1312
ility	-1313
▁Paris	-1314
▁live	-1315
▁body	-1316
▁land	-1317
arn	-1318
▁earth	-1319
▁lost	-1320
▁1.	-1321
▁expl	-1322
mbl	-1323
▁remem	-1324
▁around	-1325
én	-1326
▁hope	-1327
▁brother	-1328
fic	-1329
▁div	-1330
▁pri	-1331
▁case	-1332
▁diffe	-1333
▁spoke	-1334
ool	-1335
▁El	-1336
▁times	-1337
▁close	-1338
▁lau	-1339
bert	-1340
▁either	-1341
che	-1342
▁Count	-1343
▁really	-1344
▁free	-1345
▁stre	-1346
osition	-1347
▁front	-1348
▁smile	-1349
▁.	-1350
▁ut	-1351
▁strange	-1352
▁foot	-1353
▁move	-1354
▁opened	-1355
ane	-1356
orrow	-1357
▁within	-1358
▁strong	-1359
▁expect	-1360
▁horse	-1361
ec	-1362
▁dev	-1363
▁road	-1364
▁THE	-1365
▁met	-1366
▁swe	-1367
▁2	-1368
ime	-1369
itted	-1370
▁idea	-1371
▁perhaps	-1372
EN	-1373
▁sn	-1374
▁interest	-1375
ider	-1376
outh	-1377
▁eye	-1378
▁requ	-1379
▁daughter	-1380
▁works	-1381
▁bur	-1382
▁joy	-1383
▁prov	-1384
▁ru	-1385
sk	-1386
▁ed	-1387
▁ran	-1388
nding	-1389
▁believe	-1390
▁leg	-1391
▁continued	-1392
▁above	-1393
ape	-1394
▁bene	-1395
▁spr	-1396
ois	-1397
iers	-1398
overed	-1399
▁least	-1400
That	-1401
▁hur	-1402
▁fight	-1403
▁money	-1404
cul	-1405
ages	-1406
▁necess	-1407
ased	-1408
▁begin	-1409
▁possible	-1410
▁short	-1411
owd	-1412
_,	-1413
▁yourself	-1414
itting	-1415
let	-1416
▁six	-1417
▁become	-1418
▁mist	-1419
▁state	-1420
▁battle	-1421
▁Nap	-1422
ee	-1423
ert	-1424
ising	-1425
ually	-1426
▁held	-1427
▁happy	-1428
Ah	-1429
erv	-1430
▁eas	-1431
▁clear	-1432
enty	-1433
▁fort	-1434
ounded	-1435
▁remained	-1436
▁indeed	-1437
▁dri	-1438
arch	-1439
▁tou	-1440
▁manner	-1441
▁Russ	-1442
peror	-1443
▁excl	-1444
▁enemy	-1445
▁shout	-1446
▁Madame	-1447
ific	-1448
ushed	-1449
ror	-1450
▁added	-1451
▁itself	-1452
ards	-1453
▁gre	-1454
peri	-1455
▁became	-1456
▁breat	-1457
▁start	-1458
fter	-1459
aving	-1460
▁wood	-1461
ati	-1462
▁“‘	-1463
▁nature	-1464
▁therefore	-1465
▁five	-1466
▁hist	-1467
you	-1468
airs	-1469
iter	-1470
ught	-1471
to	-1472
▁coming	-1473
▁else	-1474
▁Ah	-1475
▁hus	-1476
oleon	-1477
▁Albert	-1478
osc	-1479
ric	-1480
▁play	-1481
Th	-1482
mm	-1483
ines	-1484
▁col	-1485
▁ve	-1486
tern	-1487
▁view	-1488
▁window	-1489
▁children	-1490
otion	-1491
▁tri	-1492
▁means	-1493
▁until	-1494
band	-1495
wh	-1496
sses	-1497
▁esc	-1498
▁mad	-1499
▁prof	-1500
▁says	-1501
▁pap	-1502
▁Dant	-1503
▁meet	-1504
▁quick	-1505
▁compan	-1506
▁received	-1507
▁Morrel	-1508
▁field	-1509
▁Napoleon	-1510
▁prop	-1511
▁trans	-1512
▁possess	-1513
be	-1514
▁equ	-1515
anced	-1516
lysses	-1517
▁Eliz	-1518
▁circ	-1519
▁exist	-1520
▁friends	-1521
▁Gree	-1522
over	-1523
▁hair	-1524
▁dem	-1525
ev	-1526
iful	-1527
▁able	-1528
▁god	-1529
▁truth	-1530
▁Rue	-1531
ubl	-1532
▁rose	-1533
▁di	-1534
▁family	-1535
▁often	-1536
abeth	-1537
▁Mary	-1538
▁cold	-1539
▁elect	-1540
▁grand	-1541
arp	-1542
▁subject	-1543
ift	-1544
▁ce	-1545
▁conv	-1546
ils	-1547
▁cut	-1548
▁lead	-1549
▁husband	-1550
▁Elizabeth	-1551
▁creat	-1552
▁appeared	-1553
▁mer	-1554
▁spir	-1555
▁Ulysses	-1556
ken	-1557
alked	-1558
▁conc	-1559
cell	-1560
race	-1561
▁Mosc	-1562
▁copy	-1563
▁repe	-1564
ym	-1565
▁Pl	-1566
."	-1567
▁Dantès	-1568
▁stra	-1569
▁bad	-1570
▁bring	-1571
▁fellow	-1572
▁shad	-1573
▁Emperor	-1574
▁Not	-1575
▁bir	-1576
▁Moscow	-1577
rig	-1578
for	-1579
▁Gre	-1580
▁instant	-1581
?’	-1582
ster	-1583
▁pain	-1584
oly	-1585
iling	-1586
▁forth	-1587
▁direct	-1588
que	-1589
▁answer	-1590
▁partic	-1591
▁walk	-1592
▁women	-1593
▁terrible	-1594
▁gard	-1595
▁exc	-1596
▁pay	-1597
▁sto	-1598
▁yes	-1599
oes	-1600
where	-1601
▁taking	-1602
alth	-1603
▁ten	-1604
▁stud	-1605
▁respect	-1606
head	-1607
▁imag	-1608
▁making	-1609
▁feeling	-1610
▁low	-1611
▁sad	-1612
▁master	-1613
orn	-1614
▁gaz	-1615
▁cross	-1616
crib	-1617
▁known	-1618
▁ready	-1619
▁18	-1620
▁prep	-1621
▁stren	-1622
cious	-1623
▁desp	-1624
▁followed	-1625
anged	-1626
▁quar	-1627
form	-1628
▁tem	-1629
▁unc	-1630
▁consider	-1631
▁force	-1632
AR	-1633
ead	-1634
room	-1635
▁plain	-1636
▁bu	-1637
▁inqu	-1638
but	-1639
▁fix	-1640
My	-1641
ledge	-1642
▁town	-1643
iously	-1644
▁perfect	-1645
▁comple	-1646
lem	-1647
▁mil	-1648
▁past	-1649
yr	-1650
▁sever	-1651
ross	-1652
▁remain	-1653
ogn	-1654
ening	-1655
▁fair	-1656
erm	-1657
use	-1658
▁surpr	-1659
rupt	-1660
▁seems	-1661
▁during	-1662
iar	-1663
ney	-1664
ush	-1665
▁drew	-1666
rap	-1667
▁mur	-1668
▁Yes	-1669
vert	-1670
ublic	-1671
resh	-1672
▁qui	-1673
rence	-1674
▁excell	-1675
ronic	-1676
▁incl	-1677
oom	-1678
entine	-1679
▁visit	-1680
orses	-1681
▁const	-1682
▁eng	-1683
▁object	-1684
▁stay	-1685
▁prison	-1686
IN	-1687
body	-1688
▁pray	-1689
▁cause	-1690
▁sometimes	-1691
cri	-1692
ury	-1693
▁dream	-1694
▁squ	-1695
itude	-1696
▁reached	-1697
▁Un	-1698
olas	-1699
▁flo	-1700
▁used	-1701
bs	-1702
oin	-1703
aged	-1704
▁sit	-1705
▁evid	-1706
▁mount	-1707
vern	-1708
▁fle	-1709
▁kept	-1710
▁different	-1711
omp	-1712
ices	-1713
▁disp	-1714
▁gods	-1715
▁placed	-1716
▁cat	-1717
▁diffic	-1718
▁expression	-1719
bed	-1720
isf	-1721
▁Eng	-1722
icholas	-1723
▁OF	-1724
▁electronic	-1725
▁horses	-1726
▁beautiful	-1727
illes	-1728
ask	-1729
▁cry	-1730
▁cent	-1731
▁tor	-1732
aimed	-1733
▁phil	-1734
dle	-1735
ues	-1736
▁fine	-1737
ollect	-1738
▁rap	-1739
▁raised	-1740
),	-1741
gg	-1742
▁Let	-1743
▁acqu	-1744
▁mere	-1745
▁din	-1746
▁book	-1747
▁terms	-1748
▁Jove	-1749
Why	-1750
iment	-1751
▁sol	-1752
▁agre	-1753
▁soci	-1754
▁These	-1755
ossible	-1756
▁vi	-1757
▁age	-1758
▁mod	-1759
▁une	-1760
▁Valentine	-1761
▁From	-1762
ott	-1763
▁Sh	-1764
osop	-1765
ceive	-1766
ize	-1767
used	-1768
ative	-1769
▁month	-1770
▁Nicholas	-1771
ancs	-1772
▁twenty	-1773
lect	-1774
▁mus	-1775
▁gall	-1776
▁stri	-1777
oof	-1778
▁captain	-1779
_.	-1780
How	-1781
▁wonder	-1782
▁Is	-1783
▁wis	-1784
▁After	-1785
▁State	-1786
▁francs	-1787
▁pleasure	-1788
ES	-1789
utes	-1790
▁die	-1791
▁immedi	-1792
▁convers	-1793
▁except	-1794
▁recogn	-1795
ump	-1796
▁cast	-1797
▁forg	-1798
▁line	-1799
▁business	-1800
ieur	-1801
▁Prin	-1802
▁prob	-1803
▁learn	-1804
▁strength	-1805
▁silence	-1806
ires	-1807
▁laugh	-1808
▁several	-1809
appe	-1810
ural	-1811
▁bit	-1812
▁mem	-1813
owers	-1814
▁philosop	-1815
▁fright	-1816
ots	-1817
lled	-1818
▁contr	-1819
▁3	-1820
ones	-1821
▁heav	-1822
▁number	-1823
ON	-1824
oon	-1825
▁tried	-1826
▁account	-1827
▁following	-1828
anz	-1829
▁thee	-1830
▁mouth	-1831
onsieur	-1832
▁carriage	-1833
▁eat	-1834
▁fif	-1835
énard	-1836
inct	-1837
like	-1838
▁boy	-1839
ingly	-1840
▁justice	-1841
!’	-1842
▁De	-1843
ches	-1844
▁third	-1845
▁youth	-1846
de	-1847
side	-1848
▁post	-1849
▁obser	-1850
▁doctor	-1851
▁officer	-1852
▁soldiers	-1853
erous	-1854
▁Princess	-1855
ote	-1856
▁trou	-1857
▁crowd	-1858
▁happened	-1859
▁Thénard	-1860
▁pale	-1861
bit	-1862
▁affect	-1863
▁secret	-1864
▁laid	-1865
▁accord	-1866
▁hardly	-1867
▁charact	-1868
▁Her	-1869
▁carried	-1870
▁doing	-1871
ob	-1872
▁hast	-1873
▁drink	-1874
▁event	-1875
▁exclaimed	-1876
▁peace	-1877
._	-1878
nds	-1879
▁arr	-1880
▁opin	-1881
▁struck	-1882
vel	-1883
▁led	-1884
▁hung	-1885
▁import	-1886
▁comes	-1887
▁seeing	-1888
▁standing	-1889
▁Do	-1890
elle	-1891
▁fast	-1892
ination	-1893
▁Franz	-1894
iding	-1895
▁happiness	-1896
▁effect	-1897
▁further	-1898
▁turning	-1899
IS	-1900
▁common	-1901
We	-1902
▁iron	-1903
▁garden	-1904
▁sitting	-1905
▁proper	-1906
▁position	-1907
▁ri	-1908
lish	-1909
If	-1910
amed	-1911
▁danger	-1912
▁pie	-1913
▁break	-1914
▁dog	-1915
▁certainly	-1916
ger	-1917
▁city	-1918
▁knowledge	-1919
ters	-1920
▁ought	-1921
▁remember	-1922
aj	-1923
▁Pe	-1924
▁prince	-1925
▁particular	-1926
clock	-1927
▁Well	-1928
▁vict	-1929
▁stopped	-1930
▁inn	-1931
▁forward	-1932
ission	-1933
▁impossible	-1934
mes	-1935
what	-1936
▁beneath	-1937
▁By	-1938
▁carry	-1939
▁dread	-1940
▁dress	-1941
▁Oh	-1942
▁fre	-1943
▁lim	-1944
▁calm	-1945
▁distrib	-1946
▁def	-1947
▁burn	-1948
▁attention	-1949
▁’	-1950
though	-1951
▁across	-1952
▁speaking	-1953
▁evidently	-1954
uff	-1955
iced	-1956
▁sus	-1957
aused	-1958
▁Mrs	-1959
▁main	-1960
▁living	-1961
gr	-1962
ze	-1963
ius	-1964
▁fav	-1965
▁prot	-1966
uous	-1967
▁Ben	-1968
▁purs	-1969
▁Thus	-1970
▁bright	-1971
▁neither	-1972
▁Lu	-1973
ency	-1974
▁fat	-1975
▁fig	-1976
icked	-1977
▁regard	-1978
ales	-1979
▁beside	-1980
▁street	-1981
der	-1982
ina	-1983
▁mag	-1984
▁year	-1985
▁guard	-1986
▁rev	-1987
tempt	-1988
▁Saint	-1989
ames	-1990
▁ball	-1991
▁tears	-1992
▁satisf	-1993
▁hat	-1994
▁news	-1995
▁worth	-1996
itation	-1997
▁anyone	-1998
▁Kut	-1999
▁Found	-2000
▁evil	-2001
▁produ	-2002
▁sense	-2003
▁5	-2004
▁av	-2005
There	-2006
arent	-2007
▁wanted	-2008
zov	-2009
itions	-2010
▁delight	-2011
bour	-2012
▁Foundation	-2013
asion	-2014
▁steps	-2015
uted	-2016
▁len	-2017
▁corner	-2018
▁Thénardier	-2019
▁host	-2020
▁sail	-2021
cer	-2022
▁desce	-2023
▁suppose	-2024
▁jud	-2025
▁auth	-2026
▁viol	-2027
▁dut	-2028
▁perm	-2029
▁Why	-2030
▁bound	-2031
▁knows	-2032
ality	-2033
▁lips	-2034
▁quiet	-2035
▁remark	-2036
▁bear	-2037
...”	-2038
▁mat	-2039
▁anim	-2040
——	-2041
fer	-2042
olute	-2043
▁hours	-2044
▁drawing	-2045
▁Miss	-2046
▁port	-2047
▁former	-2048
▁rapid	-2049
ivid	-2050
▁Ach	-2051
▁arrived	-2052
AN	-2053
ored	-2054
▁vain	-2055
▁moved	-2056
▁watch	-2057
▁rich	-2058
▁summ	-2059
▁wild	-2060
▁glass	-2061
▁sweet	-2062
▁effort	-2063
▁silent	-2064
▁inform	-2065
▁mention	-2066
▁character	-2067
▁boat	-2068
▁story	-2069
▁enc	-2070
usion	-2071
▁Ahab	-2072
▁prev	-2073
▁slow	-2074
▁occur	-2075
▁wished	-2076
▁est	-2077
▁eight	-2078
▁later	-2079
▁necessary	-2080
ras	-2081
raid	-2082
▁Nor	-2083
▁wine	-2084
erc	-2085
▁lie	-2086
▁coun	-2087
▁entire	-2088
▁princi	-2089
yl	-2090
▁4	-2091
▁agree	-2092
▁length	-2093
kn	-2094
▁grie	-2095
▁pret	-2096
▁charm	-2097
▁trave	-2098
▁Sc	-2099
▁closed	-2100
▁princess	-2101
▁scar	-2102
▁court	-2103
itten	-2104
ration	-2105
▁conce	-2106
uct	-2107
▁band	-2108
▁glad	-2109
▁succ	-2110
▁change	-2111
umed	-2112
▁occup	-2113
just	-2114
▁pock	-2115
▁purp	-2116
▁Te	-2117
▁harm	-2118
▁troo	-2119
▁Or	-2120
▁lady	-2121
▁fixed	-2122
▁govern	-2123
▁whis	-2124
▁compl	-2125
▁trees	-2126
,"	-2127
▁self	-2128
▁emb	-2129
▁Here	-2130
▁show	-2131
▁single	-2132
ges	-2133
ony	-2134
▁thoughts	-2135
▁beginning	-2136
▁immediately	-2137
ley	-2138
▁attack	-2139
▁minutes	-2140
emois	-2141
bo	-2142
vere	-2143
▁gun	-2144
▁late	-2145
emoiselle	-2146
▁makes	-2147
Do	-2148
:--	-2149
tend	-2150
▁Hol	-2151
▁experi	-2152
▁tone	-2153
▁Russian	-2154
▁countess	-2155
ics	-2156
▁paper	-2157
▁opinion	-2158
▁cho	-2159
▁killed	-2160
ging	-2161
king	-2162
▁Cap	-2163
▁thick	-2164
▁afraid	-2165
hov	-2166
▁reply	-2167
▁disappe	-2168
▁fut	-2169
▁loud	-2170
▁paid	-2171
▁virt	-2172
▁honor	-2173
▁Ph	-2174
▁grave	-2175
▁pen	-2176
OR	-2177
▁blue	-2178
ours	-2179
inary	-2180
▁fate	-2181
▁straight	-2182
▁soft	-2183
▁conversation	-2184
apter	-2185
▁fing	-2186
tained	-2187
▁circum	-2188
▁proceed	-2189
raph	-2190
yond	-2191
▁complete	-2192
bled	-2193
▁val	-2194
▁green	-2195
retched	-2196
▁fly	-2197
asp	-2198
▁suit	-2199
▁Of	-2200
Then	-2201
▁Pet	-2202
▁obl	-2203
▁try	-2204
▁Some	-2205
▁fanc	-2206
▁vill	-2207
▁neigh	-2208
▁demand	-2209
▁spirit	-2210
▁presence	-2211
▁thinking	-2212
anks	-2213
▁kill	-2214
▁author	-2215
▁trembl	-2216
under	-2217
▁below	-2218
▁gloom	-2219
▁slight	-2220
▁talking	-2221
▁distance	-2222
▁understood	-2223
ustom	-2224
▁future	-2225
▁accept	-2226
▁tom	-2227
▁repeated	-2228
▁anx	-2229
▁Plat	-2230
ode	-2231
▁hig	-2232
avert	-2233
▁mine	-2234
▁Holmes	-2235
▁dinner	-2236
Wh	-2237
nya	-2238
▁desire	-2239
▁darkness	-2240
IT	-2241
▁lived	-2242
▁loved	-2243
▁public	-2244
arr	-2245
▁mass	-2246
▁reach	-2247
▁breast	-2248
ilt	-2249
light	-2250
▁caught	-2251
▁troops	-2252
▁address	-2253
▁orders	-2254
ned	-2255
ónya	-2256
▁lab	-2257
▁maid	-2258
▁warm	-2259
▁forget	-2260
▁English	-2261
▁occasion	-2262
▁Den	-2263
▁walked	-2264
▁Am	-2265
▁bow	-2266
▁fresh	-2267
▁threw	-2268
▁Javert	-2269
▁broken	-2270
▁history	-2271
ski	-2272
▁top	-2273
▁tra	-2274
▁shore	-2275
In	-2276
net	-2277
sov	-2278
cience	-2279
.]	-2280
ooh	-2281
▁box	-2282
▁exam	-2283
▁intell	-2284
bers	-2285
▁sal	-2286
▁While	-2287
olution	-2288
ón	-2289
iant	-2290
▁won	-2291
▁floor	-2292
▁breath	-2293
▁soldier	-2294
oved	-2295
▁pat	-2296
ND	-2297
▁Who	-2298
cient	-2299
▁wait	-2300
eness	-2301
itary	-2302
▁laws	-2303
▁Every	-2304
▁meant	-2305
▁Hector	-2306
▁nearly	-2307
▁destroy	-2308
▁Troy	-2309
▁Bor	-2310
▁Cad	-2311
▁Dar	-2312
ented	-2313
▁weak	-2314
▁beyond	-2315
▁seized	-2316
urg	-2317
aled	-2318
▁big	-2319
▁cre	-2320
▁none	-2321
ísov	-2322
▁comb	-2323
▁kiss	-2324
▁belong	-2325
▁purpose	-2326
▁Ne	-2327
....	-2328
ploy	-2329
▁deal	-2330
par	-2331
ancing	-2332
ically	-2333
▁action	-2334
▁report	-2335
▁waiting	-2336
ume	-2337
▁ago	-2338
ining	-2339
▁Darcy	-2340
uel	-2341
▁chance	-2342
▁fortune	-2343
▁service	-2344
▁Le	-2345
atever	-2346
▁States	-2347
▁escape	-2348
▁quickly	-2349
▁success	-2350
ler	-2351
▁Sp	-2352
▁decl	-2353
▁Sónya	-2354
--------	-2355
▁instead	-2356
▁natural	-2357
ager	-2358
▁peas	-2359
▁sens	-2360
▁rul	-2361
osing	-2362
▁filled	-2363
ah	-2364
▁ann	-2365
ek	-2366
peci	-2367
▁neck	-2368
▁spot	-2369
▁trad	-2370
▁heavy	-2371
ected	-2372
▁camp	-2373
▁although	-2374
▁enter	-2375
erousse	-2376
ortal	-2377
▁rock	-2378
▁wrong	-2379
▁Christ	-2380
night	-2381
val	-2382
ives	-2383
ries	-2384
▁Dor	-2385
▁wit	-2386
▁grew	-2387
▁please	-2388
▁Denísov	-2389
▁shouted	-2390
▁Se	-2391
▁society	-2392
ists	-2393
leep	-2394
▁den	-2395
▁written	-2396
ified	-2397
▁hill	-2398
▁depart	-2399
▁Achilles	-2400
▁Caderousse	-2401
▁appearance	-2402
med	-2403
▁hop	-2404
achus	-2405
amber	-2406
▁stone	-2407
▁wound	-2408
▁En	-2409
anch	-2410
ises	-2411
ively	-2412
known	-2413
▁pretty	-2414
arer	-2415
▁vol	-2416
▁employ	-2417
▁individ	-2418
▁approach	-2419
▁stranger	-2420
▁Gr	-2421
▁easy	-2422
▁utter	-2423
els	-2424
ague	-2425
antly	-2426
idence	-2427
▁motion	-2428
▁Mademoiselle	-2429
OO	-2430
▁loc	-2431
▁coat	-2432
co	-2433
▁mut	-2434
sembl	-2435
▁Alice	-2436
▁circumst	-2437
hood	-2438
▁forest	-2439
ET	-2440
▁forgot	-2441
ubb	-2442
urch	-2443
isted	-2444
▁jour	-2445
▁follow	-2446
▁latter	-2447
▁agreement	-2448
▁Ed	-2449
▁sky	-2450
▁usual	-2451
▁glance	-2452
▁describ	-2453
▁copyright	-2454
▁middle	-2455
▁wounded	-2456
▁movement	-2457
▁individual	-2458
▁infl	-2459
▁mill	-2460
▁alarm	-2461
ady	-2462
angu	-2463
▁firm	-2464
▁study	-2465
▁plan	-2466
▁Van	-2467
▁duty	-2468
▁marry	-2469
▁merely	-2470
▁toward	-2471
▁gentleman	-2472
▁ign	-2473
▁Where	-2474
▁prevent	-2475
con	-2476
asure	-2477
▁clot	-2478
▁pocket	-2479
bé	-2480
aff	-2481
eds	-2482
ees	-2483
▁fal	-2484
▁pal	-2485
▁Chapter	-2486
ism	-2487
ouses	-2488
wo	-2489
pit	-2490
inted	-2491
▁mark	-2492
ection	-2493
▁allow	-2494
▁spread	-2495
▁officers	-2496
aped	-2497
cerf	-2498
well	-2499
▁hero	-2500
culiar	-2501
▁train	-2502
non	-2503
idge	-2504
▁simple	-2505
▁direction	-2506
ól	-2507
ugg	-2508
aves	-2509
ding	-2510
▁cra	-2511
▁blind	-2512
▁peculiar	-2513
acy	-2514
pping	-2515
▁bold	-2516
▁race	-2517
▁Morcerf	-2518
▁greater	-2519
▁marriage	-2520
dom	-2521
▁King	-2522
▁shut	-2523
▁noble	-2524
▁attempt	-2525
▁und	-2526
This	-2527
omer	-2528
▁Tro	-2529
ision	-2530
▁silver	-2531
▁covered	-2532
▁noticed	-2533
ship	-2534
▁Fau	-2535
pecially	-2536
▁outside	-2537
▁perform	-2538
lling	-2539
▁cost	-2540
anging	-2541
▁formed	-2542
▁probably	-2543
oned	-2544
ishop	-2545
▁running	-2546
ient	-2547
teen	-2548
ulty	-2549
▁pull	-2550
▁Plato	-2551
▁seven	-2552
▁courage	-2553
OU	-2554
gor	-2555
▁brave	-2556
▁getting	-2557
hys	-2558
pend	-2559
▁van	-2560
▁aston	-2561
▁giving	-2562
▁includ	-2563
▁meaning	-2564
awn	-2565
▁suc	-2566
▁unh	-2567
▁lean	-2568
▁smoke	-2569
ously	-2570
▁died	-2571
▁save	-2572
▁lower	-2573
▁treat	-2574
▁beauty	-2575
▁result	-2576
ys	-2577
Now	-2578
ades	-2579
▁conn	-2580
▁walls	-2581
▁slowly	-2582
rop	-2583
Come	-2584
cely	-2585
▁pit	-2586
▁leaving	-2587
verse	-2588
▁educ	-2589
▁fier	-2590
reme	-2591
▁wide	-2592
▁apart	-2593
▁France	-2594
▁fallen	-2595
othy	-2596
▁send	-2597
▁broad	-2598
▁early	-2599
▁passing	-2600
▁maj	-2601
ibly	-2602
▁bank	-2603
▁pity	-2604
▁asleep	-2605
▁afterwards	-2606
aire	-2607
▁Bar	-2608
▁Troj	-2609
▁exact	-2610
▁Dorothy	-2611
ais	-2612
urs	-2613
Book	-2614
▁por	-2615
▁becom	-2616
▁passage	-2617
oup	-2618
▁succeed	-2619
▁expected	-2620
ests	-2621
▁Mar	-2622
▁pun	-2623
▁var	-2624
▁cart	-2625
erable	-2626
▁absolute	-2627
▁months	-2628
RE	-2629
▁bott	-2630
▁incre	-2631
▁comfort	-2632
▁married	-2633
uit	-2634
OM	-2635
aded	-2636
aval	-2637
▁grow	-2638
▁prec	-2639
▁furn	-2640
▁deser	-2641
▁advant	-2642
▁listened	-2643
▁cab	-2644
▁rid	-2645
▁Arch	-2646
▁Pooh	-2647
icense	-2648
▁angry	-2649
▁greatest	-2650
SE	-2651
inal	-2652
ories	-2653
▁trying	-2654
ring	-2655
▁med	-2656
▁defe	-2657
tended	-2658
▁concl	-2659
▁shoulders	-2660
▁especially	-2661
▁police	-2662
▁smiled	-2663
▁despair	-2664
▁important	-2665
▁deg	-2666
▁que	-2667
ences	-2668
▁trouble	-2669
ike	-2670
uge	-2671
ovna	-2672
▁lif	-2673
▁chair	-2674
▁holding	-2675
TI	-2676
▁dust	-2677
▁stat	-2678
▁lying	-2679
▁separ	-2680
▁servant	-2681
itated	-2682
▁burst	-2683
▁sorrow	-2684
ertainly	-2685
▁collect	-2686
▁quarter	-2687
▁retreat	-2688
000	-2689
▁Ag	-2690
▁Tr	-2691
▁mel	-2692
▁sor	-2693
bered	-2694
oured	-2695
▁smiling	-2696
ners	-2697
▁bell	-2698
ishing	-2699
▁polit	-2700
▁barric	-2701
▁enj	-2702
▁win	-2703
▁orig	-2704
▁ideas	-2705
▁surprise	-2706
III	-2707
▁determ	-2708
▁commander	-2709
ples	-2710
▁fee	-2711
▁party	-2712
ompan	-2713
▁Rome	-2714
▁super	-2715
▁according	-2716
▁seat	-2717
▁notice	-2718
▁whatever	-2719
▁civ	-2720
▁cand	-2721
▁sharp	-2722
▁ancient	-2723
Not	-2724
aly	-2725
rect	-2726
▁arg	-2727
▁river	-2728
▁easily	-2729
▁figure	-2730
To	-2731
ior	-2732
uly	-2733
sequ	-2734
▁heads	-2735
▁Bennet	-2736
▁perfectly	-2737
UL	-2738
eks	-2739
acing	-2740
▁note	-2741
▁piece	-2742
▁United	-2743
ares	-2744
mond	-2745
▁liber	-2746
ails	-2747
▁cou	-2748
cript	-2749
▁rage	-2750
▁spite	-2751
▁regiment	-2752
axim	-2753
▁empt	-2754
▁gate	-2755
irtier	-2756
▁grief	-2757
▁houses	-2758
held	-2759
▁gro	-2760
▁Just	-2761
▁hunt	-2762
▁sides	-2763
▁everyone	-2764
ae	-2765
ien	-2766
▁tree	-2767
▁eBook	-2768
▁unknown	-2769
▁difficult	-2770
oh	-2771
ald	-2772
▁Cl	-2773
eless	-2774
osite	-2775
▁divine	-2776
▁allowed	-2777
▁persons	-2778
▁excellency	-2779
now	-2780
wor	-2781
wise	-2782
▁appl	-2783
▁phys	-2784
▁pract	-2785
▁journey	-2786
▁reflect	-2787
▁disappeared	-2788
▁ves	-2789
▁eager	-2790
▁honour	-2791
▁Noirtier	-2792
ha	-2793
ts	-2794
ays	-2795
▁situ	-2796
▁lives	-2797
▁Ab	-2798
▁La	-2799
▁Yet	-2800
inite	-2801
okhov	-2802
▁Mont	-2803
▁flew	-2804
▁priv	-2805
▁faith	-2806
▁rising	-2807
▁receive	-2808
▁serious	-2809
▁support	-2810
▁contrary	-2811
Is	-2812
▁Br	-2813
acked	-2814
▁surr	-2815
ólokhov	-2816
▁pleased	-2817
go	-2818
ingu	-2819
ouis	-2820
▁blow	-2821
▁lies	-2822
▁poet	-2823
▁bread	-2824
▁charge	-2825
▁tender	-2826
▁feelings	-2827
▁teeth	-2828
▁golden	-2829
▁Dólokhov	-2830
elve	-2831
▁Such	-2832
▁commun	-2833
ma	-2834
ashed	-2835
▁exec	-2836
▁displ	-2837
▁scene	-2838
▁health	-2839
▁company	-2840
▁interrupt	-2841
lo	-2842
▁Dr	-2843
esty	-2844
▁island	-2845
▁spring	-2846
▁vessel	-2847
OOK	-2848
▁thin	-2849
▁music	-2850
▁stern	-2851
▁dressed	-2852
ator	-2853
▁Homer	-2854
▁oblig	-2855
ishment	-2856
iod	-2857
▁bra	-2858
▁har	-2859
▁sym	-2860
▁appears	-2861
ming	-2862
▁hide	-2863
ushing	-2864
cr	-2865
io	-2866
,000	-2867
▁hot	-2868
ander	-2869
enced	-2870
essed	-2871
ested	-2872
▁Whale	-2873
▁class	-2874
iterary	-2875
▁crew	-2876
▁false	-2877
▁shadow	-2878
▁virtue	-2879
▁promise	-2880
gy	-2881
—“	-2882
cial	-2883
▁bent	-2884
▁food	-2885
▁spect	-2886
ham	-2887
They	-2888
ases	-2889
lsing	-2890
▁sake	-2891
tering	-2892
▁Helsing	-2893
pic	-2894
▁er	-2895
▁ho	-2896
▁Per	-2897
agraph	-2898
▁enjoy	-2899
▁bottom	-2900
▁showed	-2901
▁opposite	-2902
▁paragraph	-2903
come	-2904
fast	-2905
lemn	-2906
▁sch	-2907
▁tall	-2908
fortun	-2909
ingley	-2910
▁proud	-2911
▁shook	-2912
▁yield	-2913
▁minute	-2914
▁solemn	-2915
▁terror	-2916
▁thunder	-2917
▁snow	-2918
▁events	-2919
▁Captain	-2920
▁touched	-2921
org	-2922
rea	-2923
rid	-2924
rate	-2925
arily	-2926
ilian	-2927
▁safe	-2928
pected	-2929
▁Bingley	-2930
▁Monsieur	-2931
▁questions	-2932
ply	-2933
▁dim	-2934
▁fun	-2935
▁stro	-2936
idered	-2937
▁imper	-2938
▁langu	-2939
▁noise	-2940
▁sword	-2941
▁histor	-2942
how	-2943
▁XV	-2944
athan	-2945
▁imagine	-2946
▁accompan	-2947
ís	-2948
▁started	-2949
ustration	-2950
▁distingu	-2951
▁entirely	-2952
▁Ly	-2953
tled	-2954
ument	-2955
▁murm	-2956
▁habit	-2957
▁clo	-2958
▁Merc	-2959
▁legs	-2960
▁drawn	-2961
▁ignor	-2962
ception	-2963
▁conscious	-2964
aste	-2965
▁eld	-2966
ortun	-2967
▁obey	-2968
▁pict	-2969
▁yell	-2970
▁gentlemen	-2971
ye	-2972
▁ears	-2973
▁join	-2974
icated	-2975
▁pointed	-2976
▁finished	-2977
▁difficulty	-2978
bor	-2979
hel	-2980
▁See	-2981
▁roy	-2982
arked	-2983
▁conqu	-2984
▁ships	-2985
▁trust	-2986
▁twelve	-2987
▁various	-2988
So	-2989
aud	-2990
bre	-2991
oted	-2992
roche	-2993
▁gazed	-2994
▁stream	-2995
▁ourselves	-2996
▁stop	-2997
▁knees	-2998
▁Andrea	-2999
▁assist	-3000
▁changed	-3001
▁concern	-3002
olog	-3003
▁Gav	-3004
▁aim	-3005
▁ble	-3006
▁beat	-3007
ounced	-3008
▁broke	-3009
▁letters	-3010
▁visible	-3011
▁dreadful	-3012
▁shoulder	-3013
dd	-3014
ouds	-3015
▁Jane	-3016
▁rise	-3017
▁sacri	-3018
▁seated	-3019
▁Gavroche	-3020
▁observed	-3021
▁affection	-3022
▁Bl	-3023
appy	-3024
▁adj	-3025
▁dart	-3026
▁path	-3027
▁drove	-3028
ference	-3029
theless	-3030
▁forced	-3031
▁knowing	-3032
▁scarcely	-3033
ruct	-3034
▁gen	-3035
▁hid	-3036
▁dare	-3037
▁tail	-3038
ibility	-3039
▁Edmond	-3040
ture	-3041
▁Min	-3042
▁barricade	-3043
rem	-3044
rer	-3045
▁Lord	-3046
▁bore	-3047
▁vast	-3048
▁famil	-3049
▁storm	-3050
ilar	-3051
onel	-3052
▁Made	-3053
▁amid	-3054
▁bare	-3055
▁ring	-3056
levent	-3057
▁fifty	-3058
▁royal	-3059
▁caused	-3060
▁myster	-3061
▁suffic	-3062
▁ant	-3063
▁sac	-3064
▁deck	-3065
▁press	-3066
▁listen	-3067
▁6	-3068
THE	-3069
iny	-3070
zen	-3071
oken	-3072
retch	-3073
▁creature	-3074
iff	-3075
emark	-3076
▁Anna	-3077
father	-3078
▁recei	-3079
▁moving	-3080
▁display	-3081
éd	-3082
bles	-3083
▁moon	-3084
▁write	-3085
▁Gregor	-3086
▁beheld	-3087
▁church	-3088
CT	-3089
▁Re	-3090
▁tow	-3091
uting	-3092
ternal	-3093
▁board	-3094
▁decided	-3095
▁learned	-3096
▁education	-3097
atic	-3098
pered	-3099
▁Lond	-3100
▁cloud	-3101
▁faces	-3102
▁affair	-3103
▁places	-3104
▁contain	-3105
▁existence	-3106
?"	-3107
uls	-3108
▁Beau	-3109
▁Lucy	-3110
▁lose	-3111
▁shud	-3112
iction	-3113
▁Fauche	-3114
▁village	-3115
do	-3116
anqu	-3117
▁avo	-3118
leine	-3119
▁fool	-3120
▁Borís	-3121
▁worse	-3122
▁inquired	-3123
▁Madeleine	-3124
▁advantage	-3125
▁presented	-3126
▁frightened	-3127
▁Fauchelevent	-3128
af	-3129
gel	-3130
burg	-3131
▁aside	-3132
ability	-3133
▁Archive	-3134
▁chamber	-3135
Good	-3136
aling	-3137
olved	-3138
▁Literary	-3139
ghed	-3140
▁wrote	-3141
▁ladies	-3142
▁simply	-3143
CE	-3144
▁inh	-3145
ament	-3146
▁didn	-3147
▁Their	-3148
▁fault	-3149
▁intro	-3150
▁clothes	-3151
▁conduct	-3152
kh	-3153
▁Com	-3154
▁tum	-3155
▁ming	-3156
ashion	-3157
▁flight	-3158
▁repres	-3159
▁thrown	-3160
▁trembling	-3161
Ill	-3162
Who	-3163
▁rode	-3164
▁vent	-3165
▁wise	-3166
▁girls	-3167
▁influ	-3168
▁touch	-3169
▁London	-3170
▁access	-3171
▁attend	-3172
▁spoken	-3173
▁walking	-3174
▁profound	-3175
aked	-3176
while	-3177
▁coff	-3178
▁goes	-3179
▁weep	-3180
▁admir	-3181
▁alive	-3182
▁superi	-3183
▁unable	-3184
▁approached	-3185
Let	-3186
she	-3187
umn	-3188
▁rushed	-3189
▁voices	-3190
▁streets	-3191
cure	-3192
▁Mart	-3193
▁dism	-3194
▁magn	-3195
▁begun	-3196
▁obtain	-3197
▁period	-3198
▁However	-3199
▁ordered	-3200
▁servants	-3201
▁Pé	-3202
arsh	-3203
▁parts	-3204
▁gloomy	-3205
▁military	-3206
▁occurred	-3207
▁perceived	-3208
Illustration	-3209
?—	-3210
▁Sun	-3211
▁strugg	-3212
▁opening	-3213
▁passion	-3214
▁uttered	-3215
▁forgotten	-3216
ieu	-3217
ulf	-3218
▁IN	-3219
izing	-3220
▁BOOK	-3221
▁miss	-3222
▁aband	-3223
▁likely	-3224
▁unless	-3225
▁windows	-3226
▁condition	-3227
lin	-3228
▁awa	-3229
▁Your	-3230
▁bird	-3231
▁ende	-3232
lemachus	-3233
▁writing	-3234
aximilian	-3235
▁distinct	-3236
▁intellig	-3237
ING	-3238
olk	-3239
oint	-3240
▁offer	-3241
▁require	-3242
▁occupied	-3243
iles	-3244
▁Jon	-3245
▁entr	-3246
▁equal	-3247
▁Bishop	-3248
▁Greece	-3249
▁engaged	-3250
▁opportun	-3251
▁property	-3252
▁philosophy	-3253
▁remembered	-3254
▁sple	-3255
▁handsome	-3256
LE	-3257
lex	-3258
▁drag	-3259
▁crown	-3260
▁suffer	-3261
▁talked	-3262
▁advanced	-3263
tya	-3264
▁Gu	-3265
▁hes	-3266
▁ver	-3267
▁harp	-3268
▁shot	-3269
▁sick	-3270
▁clouds	-3271
▁besides	-3272
▁hurried	-3273
gin	-3274
hest	-3275
soci	-3276
▁Vas	-3277
▁More	-3278
▁Will	-3279
▁abbé	-3280
▁cheer	-3281
▁grace	-3282
▁swift	-3283
attered	-3284
▁remarked	-3285
arrow	-3286
▁extra	-3287
▁papers	-3288
▁sacred	-3289
▁mentioned	-3290
▁neg	-3291
▁hall	-3292
▁seek	-3293
▁Peters	-3294
▁memory	-3295
▁explain	-3296
▁impress	-3297
▁considered	-3298
ios	-3299
▁Fl	-3300
atsby	-3301
▁sons	-3302
▁empty	-3303
▁enorm	-3304
▁horror	-3305
▁recall	-3306
▁resembl	-3307
▁superior	-3308
no	-3309
Where	-3310
chief	-3311
▁disg	-3312
terday	-3313
▁lines	-3314
▁advance	-3315
▁donations	-3316
cle	-3317
oses	-3318
▁bod	-3319
▁midst	-3320
▁associ	-3321
▁inquir	-3322
▁wealth	-3323
▁prepared	-3324
▁satisfied	-3325
▁trademark	-3326
ech	-3327
oop	-3328
▁sy	-3329
ature	-3330
▁pure	-3331
▁Pétya	-3332
▁counten	-3333
▁circumstances	-3334
án	-3335
ín	-3336
rif	-3337
aker	-3338
édès	-3339
▁ris	-3340
▁civil	-3341
▁dying	-3342
▁looks	-3343
▁glanced	-3344
.,	-3345
ocr	-3346
▁Bes	-3347
▁Tom	-3348
▁fet	-3349
▁jump	-3350
▁speed	-3351
▁warri	-3352
▁preser	-3353
▁thirty	-3354
▁discovered	-3355
——”	-3356
hens	-3357
▁cook	-3358
▁mour	-3359
▁ones	-3360
▁chest	-3361
▁devil	-3362
▁takes	-3363
▁favour	-3364
▁splend	-3365
▁affairs	-3366
▁rapidly	-3367
▁wretched	-3368
▁surprised	-3369
▁government	-3370
▁[1	-3371
antic	-3372
▁rain	-3373
▁Stubb	-3374
▁gives	-3375
ancholy	-3376
▁Gatsby	-3377
▁parent	-3378
▁charming	-3379
ex	-3380
▁der	-3381
▁tyr	-3382
▁fancy	-3383
ruction	-3384
▁Father	-3385
▁endeav	-3386
▁mighty	-3387
▁sought	-3388
▁resumed	-3389
▁prisoner	-3390
AL	-3391
ít	-3392
acle	-3393
iance	-3394
▁fish	-3395
action	-3396
▁prove	-3397
▁bitter	-3398
▁higher	-3399
▁reading	-3400
ED	-3401
IL	-3402
ao	-3403
▁XX	-3404
▁pet	-3405
▁sav	-3406
champ	-3407
▁Come	-3408
▁Vasí	-3409
▁pier	-3410
orious	-3411
▁similar	-3412
▁laughing	-3413
▁recollect	-3414
▁Ex	-3415
▁Two	-3416
istol	-3417
▁Cour	-3418
▁rend	-3419
▁consequ	-3420
▁Telemachus	-3421
unk	-3422
▁et	-3423
▁unf	-3424
▁Only	-3425
▁unex	-3426
▁glory	-3427
▁distant	-3428
▁suitors	-3429
▁acquaint	-3430
▁breakfast	-3431
▁companion	-3432
mer	-3433
pir	-3434
uee	-3435
queg	-3436
upid	-3437
gress	-3438
▁brow	-3439
▁star	-3440
ormand	-3441
▁shame	-3442
ueequeg	-3443
▁height	-3444
▁fashion	-3445
▁obliged	-3446
▁Maximilian	-3447
▁philosopher	-3448
oot	-3449
▁rob	-3450
▁wed	-3451
iform	-3452
▁stir	-3453
▁space	-3454
▁behold	-3455
▁fields	-3456
▁served	-3457
▁waited	-3458
▁clearly	-3459
▁introdu	-3460
▁melancholy	-3461
ray	-3462
set	-3463
vey	-3464
apped	-3465
▁coll	-3466
▁innoc	-3467
▁powers	-3468
▁sprang	-3469
▁possession	-3470
jol	-3471
▁du	-3472
pond	-3473
▁aid	-3474
▁alt	-3475
▁dam	-3476
▁fro	-3477
▁uni	-3478
aming	-3479
▁thro	-3480
jolras	-3481
▁accom	-3482
▁design	-3483
▁laughed	-3484
umph	-3485
▁dom	-3486
▁gain	-3487
▁vague	-3488
▁double	-3489
▁uniform	-3490
▁generally	-3491
▁Petersburg	-3492
!—	-3493
▁Sil	-3494
▁pati	-3495
▁forms	-3496
▁matters	-3497
▁offered	-3498
▁witness	-3499
▁expressed	-3500
zy	-3501
▁Me	-3502
enel	-3503
▁ash	-3504
▁fold	-3505
▁sugg	-3506
▁Louis	-3507
▁crime	-3508
▁uneas	-3509
▁bridge	-3510
▁happen	-3511
▁paused	-3512
▁produced	-3513
▁excellent	-3514
When	-3515
athe	-3516
cing	-3517
▁mir	-3518
▁nose	-3519
▁build	-3520
▁freed	-3521
▁mysterious	-3522
▁recognized	-3523
ée	-3524
pse	-3525
ether	-3526
icate	-3527
▁roof	-3528
racted	-3529
▁supper	-3530
▁threat	-3531
▁Enjolras	-3532
▁Mercédès	-3533
zz	-3534
▁Sm	-3535
▁id	-3536
▁May	-3537
▁cow	-3538
▁earn	-3539
▁degree	-3540
▁yellow	-3541
▁evident	-3542
▁extreme	-3543
▁flowers	-3544
▁unhappy	-3545
nce	-3546
▁Gl	-3547
▁Tz	-3548
kind	-3549
this	-3550
▁key	-3551
▁reve	-3552
▁tong	-3553
▁share	-3554
▁spent	-3555
▁explan	-3556
ohn	-3557
ran	-3558
irst	-3559
▁rag	-3560
▁week	-3561
▁Greeks	-3562
▁moments	-3563
▁enormous	-3564
▁permission	-3565
▁pi	-3566
anted	-3567
▁Even	-3568
▁nine	-3569
eneral	-3570
▁slain	-3571
▁search	-3572
▁whales	-3573
▁Beauchamp	-3574
ipp	-3575
▁AND	-3576
▁Eur	-3577
▁cit	-3578
bling	-3579
ulous	-3580
▁fill	-3581
▁Never	-3582
▁encoun	-3583
▁pistol	-3584
▁discuss	-3585
▁pressed	-3586
▁addressed	-3587
▁interrupted	-3588
of	-3589
agr	-3590
ept	-3591
essor	-3592
itable	-3593
▁Greek	-3594
▁depth	-3595
▁favor	-3596
▁pride	-3597
▁Vasíli	-3598
▁nearer	-3599
▁burning	-3600
▁meeting	-3601
▁remains	-3602
▁triumph	-3603
▁promised	-3604
▁countenance	-3605
St	-3606
ka	-3607
onap	-3608
▁Man	-3609
inced	-3610
inous	-3611
▁beast	-3612
▁proof	-3613
▁mortal	-3614
▁curious	-3615
▁someone	-3616
▁everybody	-3617
▁ep	-3618
Here	-3619
crow	-3620
ital	-3621
oped	-3622
illen	-3623
▁falling	-3624
▁hearing	-3625
▁immense	-3626
▁information	-3627
OL	-3628
my	-3629
rom	-3630
arest	-3631
ocked	-3632
oking	-3633
inated	-3634
▁Gillen	-3635
▁Trojan	-3636
▁science	-3637
▁required	-3638
▁singular	-3639
▁listening	-3640
TH	-3641
él	-3642
She	-3643
will	-3644
▁mix	-3645
ardon	-3646
▁Alex	-3647
▁fond	-3648
▁saved	-3649
▁thank	-3650
▁contem	-3651
▁Gillenormand	-3652
▁Ap	-3653
▁Ger	-3654
▁pop	-3655
▁sin	-3656
▁cell	-3657
▁emer	-3658
▁coach	-3659
▁names	-3660
▁repro	-3661
▁distur	-3662
▁dropped	-3663
▁carefully	-3664
▁yesterday	-3665
▁particularly	-3666
jo	-3667
▁cover	-3668
▁march	-3669
▁watched	-3670
ify	-3671
Your	-3672
ival	-3673
▁pra	-3674
board	-3675
usted	-3676
▁meth	-3677
▁clean	-3678
▁worthy	-3679
arb	-3680
kes	-3681
▁ge	-3682
cian	-3683
▁Thr	-3684
▁aud	-3685
▁John	-3686
▁diss	-3687
▁lord	-3688
▁bowed	-3689
▁grasp	-3690
▁liberty	-3691
▁removed	-3692
All	-3693
arse	-3694
▁baron	-3695
▁faint	-3696
▁frequ	-3697
▁comply	-3698
▁inside	-3699
▁settled	-3700
▁station	-3701
▁language	-3702
▁grandfather	-3703
áv	-3704
teau	-3705
▁Jul	-3706
imate	-3707
▁fart	-3708
▁rule	-3709
▁kissed	-3710
▁shadows	-3711
▁forehead	-3712
CH	-3713
ips	-3714
keep	-3715
ustri	-3716
▁Lady	-3717
▁asce	-3718
acious	-3719
antine	-3720
▁drive	-3721
▁inhab	-3722
▁sorry	-3723
▁finger	-3724
▁lifted	-3725
▁tomorrow	-3726
▁watching	-3727
ww	-3728
—”	-3729
enth	-3730
rain	-3731
▁Long	-3732
▁song	-3733
ainted	-3734
▁hurry	-3735
arecrow	-3736
▁believed	-3737
gar	-3738
nat	-3739
ucc	-3740
enge	-3741
rous	-3742
uded	-3743
astic	-3744
▁grown	-3745
▁Though	-3746
▁curios	-3747
▁custom	-3748
▁temper	-3749
▁fingers	-3750
▁possessed	-3751
▁gh	-3752
acks	-3753
ites	-3754
oman	-3755
▁Pig	-3756
▁foe	-3757
▁voy	-3758
▁Sper	-3759
▁lock	-3760
▁luck	-3761
▁forty	-3762
▁misery	-3763
▁stupid	-3764
▁wishes	-3765
▁accompl	-3766
▁Scarecrow	-3767
▁miserable	-3768
▁situation	-3769
**	-3770
aws	-3771
▁Go	-3772
cean	-3773
▁181	-3774
▁Ind	-3775
▁due	-3776
▁gra	-3777
▁sum	-3778
ample	-3779
▁cred	-3780
▁throw	-3781
▁pleasant	-3782
▁supposed	-3783
▁experience	-3784
▁opportunity	-3785
cil	-3786
isc	-3787
▁ow	-3788
▁Don	-3789
▁grass	-3790
▁haste	-3791
▁waves	-3792
▁modern	-3793
▁weight	-3794
▁confess	-3795
illy	-3796
▁inj	-3797
▁Anat	-3798
▁Still	-3799
▁persu	-3800
▁exactly	-3801
▁growing	-3802
long	-3803
▁fit	-3804
ollow	-3805
▁fury	-3806
▁roll	-3807
▁brain	-3808
▁judge	-3809
ication	-3810
▁License	-3811
▁absence	-3812
▁arrival	-3813
▁previous	-3814
itz	-3815
leg	-3816
reet	-3817
▁ruin	-3818
▁relig	-3819
▁asking	-3820
▁states	-3821
atherine	-3822
▁Anatole	-3823
▁useless	-3824
▁lod	-3825
asing	-3826
▁Coll	-3827
▁capt	-3828
▁huge	-3829
▁loss	-3830
▁preced	-3831
▁unjust	-3832
▁greatly	-3833
▁quietly	-3834
▁Certainly	-3835
fty	-3836
por	-3837
▁Con	-3838
▁rum	-3839
▁dawn	-3840
▁deli	-3841
▁mess	-3842
▁sand	-3843
▁office	-3844
▁peasant	-3845
▁experienced	-3846
fl	-3847
erva	-3848
▁Our	-3849
▁sew	-3850
▁comr	-3851
▁pick	-3852
▁souls	-3853
▁circle	-3854
▁leaves	-3855
▁spirits	-3856
▁unexpected	-3857
.)	-3858
cher	-3859
▁Char	-3860
▁impl	-3861
▁wore	-3862
▁method	-3863
▁apparent	-3864
▁curiosity	-3865
1.	-3866
oms	-3867
pon	-3868
▁Ad	-3869
dess	-3870
itch	-3871
▁Car	-3872
▁scr	-3873
▁grat	-3874
▁Silver	-3875
▁ceased	-3876
▁condem	-3877
▁fierce	-3878
▁century	-3879
▁somewhat	-3880
On	-3881
ux	-3882
alt	-3883
ino	-3884
iety	-3885
▁Col	-3886
▁uns	-3887
▁huss	-3888
▁sink	-3889
▁Besides	-3890
▁Minerva	-3891
▁telling	-3892
▁instinct	-3893
▁neighbor	-3894
▁described	-3895
▁including	-3896
▁influence	-3897
ias	-3898
bray	-3899
with	-3900
▁Had	-3901
▁bor	-3902
field	-3903
▁Mina	-3904
▁bull	-3905
▁Somet	-3906
▁books	-3907
▁group	-3908
▁Piglet	-3909
▁engage	-3910
▁heroes	-3911
▁Nothing	-3912
▁example	-3913
▁Catherine	-3914
▁whispered	-3915
▁XI	-3916
▁hy	-3917
case	-3918
hold	-3919
urse	-3920
▁amb	-3921
▁gar	-3922
ivity	-3923
▁feared	-3924
▁narrow	-3925
▁speech	-3926
▁thrust	-3927
▁victory	-3928
▁horrible	-3929
▁necessity	-3930
RO	-3931
mp	-3932
och	-3933
▁II	-3934
atch	-3935
▁dry	-3936
▁guns	-3937
▁doors	-3938
▁Before	-3939
▁mingled	-3940
▁private	-3941
▁instantly	-3942
▁Socr	-3943
▁Very	-3944
▁Wood	-3945
▁sigh	-3946
erning	-3947
▁Great	-3948
▁using	-3949
▁mankind	-3950
▁difference	-3951
▁gay	-3952
▁shr	-3953
asons	-3954
ounds	-3955
▁wolf	-3956
▁Having	-3957
▁cannon	-3958
▁special	-3959
▁succeeded	-3960
irm	-3961
uce	-3962
ables	-3963
▁dogs	-3964
stairs	-3965
▁Debray	-3966
▁shield	-3967
▁fighting	-3968
▁principle	-3969
▁understanding	-3970
bly	-3971
lly	-3972
▁Bou	-3973
▁born	-3974
▁shown	-3975
▁stock	-3976
ustomed	-3977
▁agreed	-3978
▁becomes	-3979
▁crossed	-3980
▁freedom	-3981
▁familiar	-3982
UT	-3983
▁TO	-3984
pire	-3985
▁Can	-3986
▁bid	-3987
▁amaz	-3988
ointed	-3989
▁impro	-3990
▁anxious	-3991
▁provide	-3992
▁suffering	-3993
▁explanation	-3994
ENT	-3995
ams	-3996
omed	-3997
▁lar	-3998
▁mot	-3999
ipped	-4000
▁fail	-4001
▁citiz	-4002
▁slept	-4003
▁priest	-4004
▁farther	-4005
▁keeping	-4006
▁monster	-4007
▁entering	-4008
▁extraord	-4009
▁intended	-4010
01	-4011
▁jo	-4012
▁batt	-4013
▁birds	-4014
▁reign	-4015
▁twice	-4016
▁arrest	-4017
▁putting	-4018
▁convinced	-4019
▁rad	-4020
ailed	-4021
olkón	-4022
▁West	-4023
▁birth	-4024
▁boats	-4025
▁flies	-4026
▁hopes	-4027
▁shock	-4028
▁stars	-4029
▁tranqu	-4030
▁lighted	-4031
▁monarch	-4032
▁descended	-4033
▁completely	-4034
▁motionless	-4035
Al	-4036
RI	-4037
azz	-4038
▁ur	-4039
rees	-4040
isher	-4041
▁fatal	-4042
▁indif	-4043
▁advice	-4044
▁calcul	-4045
▁impati	-4046
▁pieces	-4047
▁pulled	-4048
▁suspic	-4049
▁convent	-4050
▁excited	-4051
▁process	-4052
▁concealed	-4053
▁prisoners	-4054
▁8	-4055
OME	-4056
look	-4057
▁Rob	-4058
ernand	-4059
▁adjut	-4060
▁cloak	-4061
▁ranks	-4062
▁clever	-4063
▁reality	-4064
▁discover	-4065
▁suffered	-4066
▁determined	-4067
▁considerable	-4068
▁hos	-4069
▁Prof	-4070
ickham	-4071
▁brill	-4072
▁chari	-4073
▁estab	-4074
▁hence	-4075
▁liked	-4076
▁German	-4077
▁combat	-4078
▁Fantine	-4079
▁mistake	-4080
▁protect	-4081
▁entrance	-4082
▁mistaken	-4083
----------------	-4084
▁Pat	-4085
▁cup	-4086
▁tax	-4087
there	-4088
▁rare	-4089
arbuck	-4090
morrow	-4091
▁aware	-4092
▁minds	-4093
▁rooms	-4094
▁honest	-4095
▁marked	-4096
▁wicked	-4097
▁escaped	-4098
gutenberg	-4099
▁directed	-4100
▁concerning	-4101
Go	-4102
UR	-4103
eed	-4104
ker	-4105
port	-4106
▁lamp	-4107
▁task	-4108
rehens	-4109
▁ideal	-4110
▁advent	-4111
▁hearts	-4112
▁counsel	-4113
▁surrounded	-4114
mon	-4115
▁LI	-4116
rors	-4117
▁shoes	-4118
▁taste	-4119
▁withd	-4120
▁yours	-4121
▁madame	-4122
▁pushed	-4123
ávl	-4124
▁Are	-4125
▁sty	-4126
cknow	-4127
▁cous	-4128
▁mast	-4129
fortune	-4130
▁reader	-4131
▁regret	-4132
▁finally	-4133
▁violent	-4134
▁Socrates	-4135
▁directly	-4136
▁explained	-4137
▁wonderful	-4138
▁extraordinary	-4139
ule	-4140
yrac	-4141
▁III	-4142
▁hate	-4143
▁pron	-4144
▁spec	-4145
▁anger	-4146
▁lofty	-4147
▁match	-4148
▁spear	-4149
▁choose	-4150
▁stands	-4151
▁Collins	-4152
▁Wickham	-4153
▁assured	-4154
▁goddess	-4155
▁highest	-4156
▁regular	-4157
▁progress	-4158
As	-4159
het	-4160
▁Ge	-4161
house	-4162
▁gest	-4163
▁admit	-4164
▁acknow	-4165
▁scream	-4166
cription	-4167
▁murmured	-4168
▁absolutely	-4169
dia	-4170
bing	-4171
▁lot	-4172
ounce	-4173
▁Good	-4174
▁ways	-4175
▁check	-4176
▁feast	-4177
▁interp	-4178
▁prefer	-4179
▁winter	-4180
▁hastily	-4181
▁singing	-4182
▁Professor	-4183
Are	-4184
can	-4185
olt	-4186
ère	-4187
anti	-4188
coat	-4189
▁Rep	-4190
▁dull	-4191
▁ease	-4192
▁myst	-4193
▁rejo	-4194
▁symp	-4195
utions	-4196
▁delay	-4197
▁staff	-4198
▁points	-4199
▁sounds	-4200
▁General	-4201
▁parents	-4202
▁unfortun	-4203
▁approaching	-4204
AD	-4205
noon	-4206
▁fac	-4207
▁Lion	-4208
▁sire	-4209
▁miles	-4210
▁stair	-4211
▁flying	-4212
▁interv	-4213
▁Starbuck	-4214
▁departure	-4215
▁accustomed	-4216
▁7	-4217
reg	-4218
aved	-4219
eding	-4220
▁hole	-4221
▁pair	-4222
▁claim	-4223
▁truly	-4224
▁proved	-4225
olkónski	-4226
▁England	-4227
▁arrange	-4228
▁splendid	-4229
▁confidence	-4230
oe	-4231
eys	-4232
aisy	-4233
▁invol	-4234
▁Europe	-4235
▁infant	-4236
▁tongue	-4237
▁precise	-4238
▁destroyed	-4239
dig	-4240
face	-4241
▁Was	-4242
aches	-4243
▁aunt	-4244
▁gaze	-4245
▁Bonap	-4246
▁venge	-4247
▁attent	-4248
▁famous	-4249
▁hither	-4250
▁Fernand	-4251
▁conceal	-4252
▁emotion	-4253
▁sleeping	-4254
▁authority	-4255
▁everywhere	-4256
For	-4257
venge	-4258
▁dish	-4259
iments	-4260
▁groan	-4261
▁today	-4262
▁turns	-4263
▁sovere	-4264
▁square	-4265
▁throat	-4266
▁whence	-4267
▁wedding	-4268
▁arranged	-4269
▁mountain	-4270
▁rendered	-4271
▁neighbour	-4272
▁misfortune	-4273
agg	-4274
▁IV	-4275
orse	-4276
estor	-4277
▁whir	-4278
rified	-4279
▁rough	-4280
justice	-4281
▁defect	-4282
▁school	-4283
▁summer	-4284
▁addition	-4285
▁laughter	-4286
▁conscience	-4287
ait	-4288
orge	-4289
▁Tur	-4290
ucket	-4291
which	-4292
▁Pávl	-4293
▁carp	-4294
▁rear	-4295
▁avoid	-4296
▁blame	-4297
▁fever	-4298
▁raise	-4299
▁desper	-4300
▁forces	-4301
▁earnest	-4302
▁Jonathan	-4303
▁regarded	-4304
▁associated	-4305
AP	-4306
Have	-4307
▁gift	-4308
▁sees	-4309
▁shirt	-4310
▁hospit	-4311
▁picked	-4312
▁rolled	-4313
▁voyage	-4314
▁stepped	-4315
▁accepted	-4316
▁carrying	-4317
uish	-4318
▁gle	-4319
▁spo	-4320
▁vig	-4321
abbit	-4322
▁tomb	-4323
ecause	-4324
feyrac	-4325
▁dwell	-4326
▁fully	-4327
▁smell	-4328
▁genius	-4329
▁afternoon	-4330
▁accompanied	-4331
hem	-4332
▁Ts	-4333
▁Ty	-4334
rase	-4335
▁chim	-4336
▁ener	-4337
▁fled	-4338
urally	-4339
▁calls	-4340
▁queen	-4341
▁wisdom	-4342
▁Woodman	-4343
▁project	-4344
▁demanded	-4345
▁deserted	-4346
▁infinite	-4347
▁otherwise	-4348
▁acquaintance	-4349
3.	-4350
At	-4351
▁“_	-4352
arte	-4353
cles	-4354
ords	-4355
▁bul	-4356
▁elb	-4357
▁ess	-4358
▁pos	-4359
stand	-4360
▁Like	-4361
▁vari	-4362
▁worn	-4363
▁bless	-4364
▁elder	-4365
▁shade	-4366
▁tired	-4367
athered	-4368
▁credit	-4369
▁invent	-4370
▁efforts	-4371
▁confused	-4372
▁contempl	-4373
▁Courfeyrac	-4374
esh	-4375
clus	-4376
▁Ant	-4377
▁Did	-4378
▁exha	-4379
▁grad	-4380
▁Those	-4381
▁penet	-4382
▁whist	-4383
ational	-4384
▁deeply	-4385
▁request	-4386
▁entertain	-4387
▁recognize	-4388
Ex	-4389
asc	-4390
att	-4391
▁Aj	-4392
iece	-4393
road	-4394
▁Thy	-4395
▁Hark	-4396
▁heat	-4397
▁mult	-4398
▁shop	-4399
▁catch	-4400
▁skies	-4401
▁wheel	-4402
lection	-4403
▁amount	-4404
▁pardon	-4405
▁waters	-4406
▁constit	-4407
▁content	-4408
▁possibly	-4409
▁resolved	-4410
▁shouting	-4411
▁sufficient	-4412
▁continually	-4413
ault	-4414
quod	-4415
rehe	-4416
avalc	-4417
▁Each	-4418
▁exch	-4419
▁pros	-4420
▁rate	-4421
▁lance	-4422
▁named	-4423
▁ocean	-4424
▁lovely	-4425
▁refund	-4426
▁fifteen	-4427
▁official	-4428
▁relation	-4429
▁brilliant	-4430
▁intention	-4431
02	-4432
US	-4433
,--	-4434
upp	-4435
._--	-4436
▁Pol	-4437
▁www	-4438
ators	-4439
place	-4440
▁glit	-4441
▁shed	-4442
▁frown	-4443
▁Pequod	-4444
▁copies	-4445
▁gazing	-4446
▁handed	-4447
▁hidden	-4448
▁social	-4449
▁undert	-4450
▁useful	-4451
▁actions	-4452
▁travell	-4453
▁gathered	-4454
▁peasants	-4455
▁signific	-4456
hus	-4457
raw	-4458
line	-4459
unch	-4460
chant	-4461
▁dign	-4462
▁medi	-4463
▁wand	-4464
▁Daisy	-4465
▁Lydia	-4466
▁spark	-4467
▁subst	-4468
▁upper	-4469
▁wings	-4470
▁Russia	-4471
▁hollow	-4472
▁shining	-4473
▁univers	-4474
▁whisper	-4475
ims	-4476
▁je	-4477
thur	-4478
▁lin	-4479
▁clim	-4480
▁pill	-4481
alities	-4482
▁column	-4483
▁freely	-4484
▁Grecian	-4485
▁somewhere	-4486
▁i	-4487
ène	-4488
▁Sw	-4489
▁[_	-4490
▁ere	-4491
▁iss	-4492
ading	-4493
pless	-4494
▁True	-4495
▁feat	-4496
▁nice	-4497
▁weap	-4498
▁facts	-4499
▁horiz	-4500
▁shape	-4501
▁cheeks	-4502
▁strang	-4503
▁equally	-4504
▁leaning	-4505
▁prepare	-4506
▁weather	-4507
avalcanti	-4508
▁treasure	-4509
▁om	-4510
they	-4511
▁Ber	-4512
▁log	-4513
ottle	-4514
▁Have	-4515
▁wond	-4516
▁major	-4517
▁stick	-4518
▁coffin	-4519
▁severe	-4520
▁finding	-4521
▁warrior	-4522
▁generous	-4523
▁ordinary	-4524
▁touching	-4525
▁Bolkónski	-4526
▁dangerous	-4527
▁injustice	-4528
apt	-4529
fice	-4530
▁ben	-4531
▁sway	-4532
▁aloud	-4533
▁dance	-4534
▁guests	-4535
▁resist	-4536
▁retired	-4537
▁millions	-4538
▁Alexander	-4539
▁lightning	-4540
▁returning	-4541
▁Cavalcanti	-4542
Very	-4543
chen	-4544
▁bal	-4545
▁lit	-4546
▁Coss	-4547
▁bill	-4548
▁oper	-4549
▁tear	-4550
ensive	-4551
lessly	-4552
ondret	-4553
▁First	-4554
▁cabin	-4555
▁cries	-4556
▁straw	-4557
▁Heaven	-4558
▁fortun	-4559
aughters	-4560
▁numbers	-4561
▁magnific	-4562
▁provided	-4563
▁stronger	-4564
▁astonishment	-4565
▁mal	-4566
acles	-4567
ugust	-4568
▁game	-4569
▁lest	-4570
▁wear	-4571
isions	-4572
▁benef	-4573
▁dared	-4574
▁flame	-4575
▁ghost	-4576
▁wants	-4577
▁assure	-4578
▁poison	-4579
▁stairs	-4580
▁Jondret	-4581
▁entreat	-4582
▁immortal	-4583
▁original	-4584
▁sacrifice	-4585
5.	-4586
Be	-4587
igs	-4588
herd	-4589
omme	-4590
uing	-4591
▁ren	-4592
ighed	-4593
orous	-4594
rated	-4595
▁date	-4596
▁Again	-4597
▁mourn	-4598
tending	-4599
▁played	-4600
▁secure	-4601
▁thirst	-4602
▁bearing	-4603
▁nations	-4604
2.	-4605
ann	-4606
bid	-4607
ett	-4608
▁Ali	-4609
▁New	-4610
asted	-4611
orted	-4612
▁drop	-4613
▁gray	-4614
▁knife	-4615
▁Arthur	-4616
▁buried	-4617
▁centre	-4618
▁cousin	-4619
▁tumult	-4620
▁wholly	-4621
Monsieur	-4622
▁inspect	-4623
▁leading	-4624
▁attached	-4625
▁personal	-4626
▁intellect	-4627
eu	-4628
OMEO	-4629
bted	-4630
▁ens	-4631
▁ing	-4632
élène	-4633
▁Bert	-4634
▁Once	-4635
roclus	-4636
▁ROMEO	-4637
▁gently	-4638
▁savage	-4639
▁calling	-4640
▁desired	-4641
▁argument	-4642
▁pointing	-4643
).	-4644
eur	-4645
▁ca	-4646
hand	-4647
▁Ajax	-4648
▁rope	-4649
▁pause	-4650
▁prize	-4651
▁sheep	-4652
▁animal	-4653
▁phrase	-4654
▁refuse	-4655
▁transl	-4656
▁Perhaps	-4657
▁kindness	-4658
▁muttered	-4659
▁sovereign	-4660
▁importance	-4661
."]	-4662
iam	-4663
aign	-4664
work	-4665
▁vic	-4666
dered	-4667
▁narr	-4668
▁During	-4669
▁aspect	-4670
▁castle	-4671
▁disapp	-4672
▁driven	-4673
▁eating	-4674
▁joined	-4675
▁origin	-4676
▁stones	-4677
▁surely	-4678
▁creatures	-4679
▁interesting	-4680
omy	-4681
▁tea	-4682
▁wel	-4683
opher	-4684
uccio	-4685
▁edge	-4686
▁helm	-4687
uments	-4688
vering	-4689
▁boots	-4690
▁exceed	-4691
▁native	-4692
▁correct	-4693
▁inhabit	-4694
▁sympath	-4695
▁delighted	-4696
▁increased	-4697
▁destruction	-4698
ris	-4699
▁bos	-4700
▁card	-4701
▁diam	-4702
▁fulf	-4703
▁Robin	-4704
▁lover	-4705
▁style	-4706
▁toler	-4707
▁Hélène	-4708
▁remind	-4709
▁picture	-4710
▁playing	-4711
▁profess	-4712
▁working	-4713
▁adjutant	-4714
▁powerful	-4715
▁Patroclus	-4716
▁concerned	-4717
▁acquainted	-4718
▁distributing	-4719
gan	-4720
sey	-4721
umb	-4722
▁Oz	-4723
eral	-4724
ilty	-4725
osen	-4726
▁crit	-4727
▁subm	-4728
anches	-4729
keeper	-4730
▁flood	-4731
▁weeks	-4732
ogether	-4733
▁gained	-4734
▁kindly	-4735
▁Martians	-4736
▁extended	-4737
▁committed	-4738
▁represent	-4739
6.	-4740
rov	-4741
tel	-4742
rict	-4743
bourg	-4744
udden	-4745
▁obst	-4746
▁pack	-4747
ulated	-4748
▁built	-4749
▁Section	-4750
▁Bertuccio	-4751
▁contained	-4752
▁stretched	-4753
▁imagination	-4754
ium	-4755
thy	-4756
tis	-4757
▁VI	-4758
rily	-4759
▁Bal	-4760
iture	-4761
▁Glau	-4762
▁Pont	-4763
▁fame	-4764
▁grey	-4765
▁reck	-4766
▁rust	-4767
▁yard	-4768
▁timid	-4769
▁enthus	-4770
▁needed	-4771
▁prayer	-4772
▁wretch	-4773
▁Rostóvs	-4774
▁enemies	-4775
▁heavens	-4776
▁located	-4777
▁proport	-4778
▁raising	-4779
▁sisters	-4780
▁Republic	-4781
▁Jondrette	-4782
Don	-4783
min	-4784
ral	-4785
was	-4786
▁kit	-4787
▁wid	-4788
....”	-4789
▁bree	-4790
▁caus	-4791
▁hurt	-4792
▁toss	-4793
▁falls	-4794
▁grate	-4795
▁harpo	-4796
▁kings	-4797
▁purch	-4798
▁swell	-4799
respond	-4800
▁depths	-4801
▁fourth	-4802
▁ignorant	-4803
▁minister	-4804
▁daughters	-4805
▁relations	-4806
4.	-4807
AM	-4808
De	-4809
▁saf	-4810
oused	-4811
illery	-4812
▁arose	-4813
▁bride	-4814
▁fetch	-4815
▁suppl	-4816
▁Harker	-4817
▁dreams	-4818
▁jumped	-4819
▁strike	-4820
▁thanks	-4821
▁anxiety	-4822
▁colonel	-4823
▁descend	-4824
▁mounted	-4825
▁becoming	-4826
▁distress	-4827
▁dressing	-4828
▁confusion	-4829
▁impression	-4830
▁ax	-4831
book	-4832
iest	-4833
rier	-4834
then	-4835
▁Maj	-4836
itive	-4837
▁plun	-4838
▁rush	-4839
▁cruel	-4840
▁exerc	-4841
▁waist	-4842
▁Mother	-4843
▁guilty	-4844
▁medium	-4845
▁seeking	-4846
▁employed	-4847
▁remaining	-4848
▁companions	-4849
7.	-4850
._]	-4851
oor	-4852
▁RE	-4853
▁env	-4854
acity	-4855
atión	-4856
owder	-4857
using	-4858
▁Bagr	-4859
▁Hill	-4860
▁cler	-4861
▁Water	-4862
▁level	-4863
▁owner	-4864
▁uncle	-4865
▁wrath	-4866
▁Rabbit	-4867
▁candle	-4868
▁branches	-4869
▁Bagratión	-4870
▁correspond	-4871
lev	-4872
cked	-4873
ourge	-4874
▁absor	-4875
▁cases	-4876
▁flesh	-4877
▁merry	-4878
▁moral	-4879
▁paces	-4880
▁skill	-4881
▁observ	-4882
▁render	-4883
eanwhile	-4884
▁Through	-4885
▁surface	-4886
▁accident	-4887
▁campaign	-4888
▁cheerful	-4889
▁whenever	-4890
▁permitted	-4891
▁staircase	-4892
;—	-4893
Sir	-4894
who	-4895
▁Il	-4896
mble	-4897
▁ban	-4898
▁arch	-4899
▁flag	-4900
▁pant	-4901
▁sour	-4902
icable	-4903
▁Romeo	-4904
▁caval	-4905
▁coast	-4906
▁erect	-4907
▁ident	-4908
▁serve	-4909
▁sewer	-4910
▁worst	-4911
onsense	-4912
▁Street	-4913
▁bottle	-4914
▁couple	-4915
▁eBooks	-4916
▁fisher	-4917
▁proble	-4918
▁sevent	-4919
onscious	-4920
▁eternal	-4921
▁hanging	-4922
▁features	-4923
▁innocent	-4924
▁frightful	-4925
▁Christopher	-4926
key	-4927
▁[2	-4928
▁dw	-4929
▁Next	-4930
▁arts	-4931
▁blaz	-4932
▁thor	-4933
▁bosom	-4934
▁frame	-4935
▁plans	-4936
▁sorts	-4937
▁swall	-4938
uddenly	-4939
▁sailor	-4940
▁compass	-4941
▁measure	-4942
▁gradually	-4943
▁mountains	-4944
▁political	-4945
▁vengeance	-4946
new	-4947
rep	-4948
aria	-4949
quis	-4950
▁oil	-4951
▁pin	-4952
▁busy	-4953
▁heap	-4954
▁Hence	-4955
▁Shall	-4956
▁bones	-4957
▁gates	-4958
▁afford	-4959
▁steeds	-4960
▁assumed	-4961
▁sailors	-4962
▁Pávlovna	-4963
▁conception	-4964
gu	-4965
▁TH	-4966
▁Yu	-4967
cent	-4968
▁rib	-4969
▁unp	-4970
icity	-4971
▁glim	-4972
ashing	-4973
idable	-4974
▁angel	-4975
▁George	-4976
▁chosen	-4977
▁gather	-4978
▁desires	-4979
▁hideous	-4980
▁pursued	-4981
▁Moreover	-4982
▁examined	-4983
▁naturally	-4984
▁revolution	-4985
▁unfortunate	-4986
vi	-4987
aul	-4988
unte	-4989
▁ate	-4990
▁beings	-4991
▁convey	-4992
▁wooden	-4993
▁capable	-4994
▁capital	-4995
▁details	-4996
▁eagerly	-4997
▁manners	-4998
▁painful	-4999
▁princip	-5000
▁produce	-5001
▁reasons	-5002
▁citizens	-5003
▁composed	-5004
▁mistress	-5005
▁Nevertheless	-5006
▁distinguished	-5007
IG	-5008
▁BE	-5009
▁OR	-5010
ache	-5011
whel	-5012
▁lan	-5013
▁sup	-5014
acher	-5015
▁seas	-5016
▁wake	-5017
▁wept	-5018
▁Julie	-5019
▁indul	-5020
▁mater	-5021
▁batter	-5022
▁animals	-5023
▁convict	-5024
▁procure	-5025
▁shudder	-5026
▁Russians	-5027
▁thorough	-5028
▁protected	-5029
▁distribution	-5030
AS	-5031
AT	-5032
gl	-5033
ky	-5034
een	-5035
uzz	-5036
▁Wu	-5037
aunt	-5038
iner	-5039
lock	-5040
▁YOU	-5041
aries	-5042
iable	-5043
lease	-5044
urity	-5045
▁holy	-5046
▁wing	-5047
▁cours	-5048
▁fears	-5049
▁value	-5050
▁existed	-5051
▁actually	-5052
▁brothers	-5053
▁maintain	-5054
▁Meanwhile	-5055
▁astonished	-5056
com	-5057
law	-5058
rol	-5059
urd	-5060
geon	-5061
itle	-5062
inder	-5063
isten	-5064
▁Ital	-5065
▁inex	-5066
▁mate	-5067
▁torn	-5068
ouring	-5069
pended	-5070
▁discl	-5071
▁overt	-5072
▁spare	-5073
▁excuse	-5074
▁flames	-5075
kerchief	-5076
▁admitted	-5077
▁belonged	-5078
▁informed	-5079
▁physical	-5080
▁apartment	-5081
▁altogether	-5082
▁intelligence	-5083
▁satisfaction	-5084
Av	-5085
Ch	-5086
One	-5087
vol	-5088
arks	-5089
ueen	-5090
▁bew	-5091
▁bou	-5092
▁rank	-5093
▁shru	-5094
▁swim	-5095
▁tale	-5096
pelled	-5097
▁drunk	-5098
▁infer	-5099
▁ridic	-5100
▁solid	-5101
▁tempt	-5102
▁observe	-5103
▁activity	-5104
▁involunt	-5105
▁trembled	-5106
▁artillery	-5107
▁friendship	-5108
▁reflection	-5109
AG	-5110
áty	-5111
▁NO	-5112
ores	-5113
uced	-5114
▁mud	-5115
▁Tell	-5116
▁lear	-5117
arrass	-5118
▁loose	-5119
▁reser	-5120
▁squad	-5121
▁crying	-5122
▁flower	-5123
▁porter	-5124
▁safety	-5125
▁furious	-5126
▁kitchen	-5127
▁quitted	-5128
ification	-5129
▁sentence	-5130
▁slightly	-5131
▁Sometimes	-5132
▁pleasures	-5133
osy	-5134
enes	-5135
▁Alp	-5136
▁Mag	-5137
▁obv	-5138
▁pan	-5139
▁flat	-5140
▁pave	-5141
▁pipe	-5142
▁sank	-5143
▁skin	-5144
▁mercy	-5145
▁palace	-5146
▁paying	-5147
▁driving	-5148
▁gesture	-5149
▁contempt	-5150
▁instance	-5151
▁silently	-5152
▁struggle	-5153
▁abandoned	-5154
▁proceeded	-5155
!"	-5156
!_	-5157
Sh	-5158
ih	-5159
With	-5160
rien	-5161
▁sob	-5162
estic	-5163
ishes	-5164
▁Thou	-5165
▁inev	-5166
ivered	-5167
▁weary	-5168
▁corpse	-5169
▁leaned	-5170
▁poetry	-5171
▁follows	-5172
▁refused	-5173
▁revenge	-5174
▁thither	-5175
▁Suddenly	-5176
▁declared	-5177
▁presents	-5178
▁connected	-5179
Ren	-5180
nal	-5181
pap	-5182
▁Mi	-5183
▁oh	-5184
aeus	-5185
▁Red	-5186
▁fer	-5187
▁hal	-5188
alous	-5189
igned	-5190
rived	-5191
umber	-5192
▁High	-5193
▁hell	-5194
▁nurse	-5195
▁redou	-5196
Because	-5197
▁thinks	-5198
▁figures	-5199
▁Countess	-5200
▁connection	-5201
▁principles	-5202
▁handkerchief	-5203
VE	-5204
Pro	-5205
amma	-5206
▁wet	-5207
ology	-5208
uster	-5209
▁mort	-5210
Renaud	-5211
▁confl	-5212
▁ended	-5213
▁steel	-5214
ization	-5215
▁Austri	-5216
▁anywhere	-5217
▁comprehe	-5218
▁humanity	-5219
▁reproach	-5220
▁condemned	-5221
▁receiving	-5222
▁resolution	-5223
▁possibility	-5224
.’”	-5225
Mad	-5226
kins	-5227
rows	-5228
seen	-5229
▁Gard	-5230
▁Phil	-5231
▁lion	-5232
▁poem	-5233
unning	-5234
▁Sperm	-5235
▁hills	-5236
▁rever	-5237
▁abrupt	-5238
▁bodies	-5239
▁estate	-5240
▁plainly	-5241
▁Frenchman	-5242
▁agreeable	-5243
▁embarrass	-5244
▁assistance	-5245
▁nevertheless	-5246
8.	-5247
By	-5248
khá	-5249
▁Hs	-5250
TION	-5251
ilst	-5252
▁smo	-5253
▁embr	-5254
▁pace	-5255
▁term	-5256
▁flung	-5257
▁illum	-5258
▁knock	-5259
▁sport	-5260
▁assass	-5261
▁attrib	-5262
▁consid	-5263
▁Another	-5264
▁created	-5265
▁rolling	-5266
▁instruct	-5267
▁overwhel	-5268
▁doubtless	-5269
▁exception	-5270
▁execution	-5271
hic	-5272
isp	-5273
▁ty	-5274
umes	-5275
▁rig	-5276
agger	-5277
asket	-5278
ician	-5279
itate	-5280
átych	-5281
▁Pres	-5282
▁musk	-5283
asures	-5284
inging	-5285
▁Penel	-5286
▁awful	-5287
▁hoped	-5288
▁Nestor	-5289
▁active	-5290
▁stared	-5291
▁ashamed	-5292
▁cavalry	-5293
▁chimney	-5294
▁diamond	-5295
▁foreign	-5296
▁vanished	-5297
▁interests	-5298
▁reflected	-5299
▁frequently	-5300
Of	-5301
▁(_	-5302
rief	-5303
ugén	-5304
▁PRO	-5305
▁shel	-5306
ugénie	-5307
▁Italy	-5308
▁fleet	-5309
▁coward	-5310
▁extent	-5311
▁repeat	-5312
▁wheels	-5313
▁anguish	-5314
▁treated	-5315
▁bringing	-5316
▁coachman	-5317
▁material	-5318
▁precious	-5319
wl	-5320
elt	-5321
eps	-5322
mít	-5323
oyal	-5324
▁Sim	-5325
▁jew	-5326
▁dazz	-5327
▁east	-5328
▁pall	-5329
▁vers	-5330
▁rocks	-5331
▁armies	-5332
▁arrive	-5333
▁betray	-5334
▁disord	-5335
▁blessed	-5336
▁glancing	-5337
▁addressing	-5338
▁apparently	-5339
ayd	-5340
▁AN	-5341
▁Hel	-5342
▁dil	-5343
▁pot	-5344
▁reb	-5345
▁woe	-5346
▁sole	-5347
▁badly	-5348
▁cease	-5349
▁simpl	-5350
▁firing	-5351
▁setting	-5352
▁weeping	-5353
▁younger	-5354
▁Alpátych	-5355
▁breathing	-5356
▁separated	-5357
▁remarkable	-5358
▁unconscious	-5359
ese	-5360
hib	-5361
ums	-5362
ieve	-5363
lebr	-5364
▁hol	-5365
kháyl	-5366
▁Look	-5367
▁nerv	-5368
▁tent	-5369
▁arise	-5370
▁envel	-5371
▁signs	-5372
▁woods	-5373
▁hunger	-5374
▁manage	-5375
▁Mikháyl	-5376
▁happens	-5377
▁willing	-5378
formation	-5379
▁desperate	-5380
▁presently	-5381
▁Tu	-5382
fall	-5383
inks	-5384
▁Sir	-5385
▁bab	-5386
aydée	-5387
onder	-5388
▁elev	-5389
▁hamm	-5390
▁final	-5391
▁guide	-5392
▁waste	-5393
utation	-5394
▁belief	-5395
▁depend	-5396
▁strain	-5397
▁thread	-5398
▁uneasy	-5399
▁vision	-5400
▁curtain	-5401
▁lantern	-5402
▁wearing	-5403
▁attitude	-5404
▁breaking	-5405
▁commands	-5406
▁faithful	-5407
▁meantime	-5408
▁midnight	-5409
▁movements	-5410
▁Everything	-5411
▁conditions	-5412
0.	-5413
Re	-5414
fa	-5415
ancy	-5416
arly	-5417
omen	-5418
otte	-5419
▁...	-5420
▁Sat	-5421
▁nin	-5422
ental	-5423
gment	-5424
▁Mars	-5425
▁cott	-5426
▁mood	-5427
rienne	-5428
▁limbs	-5429
▁south	-5430
▁celebr	-5431
▁choice	-5432
▁colour	-5433
▁encour	-5434
▁excess	-5435
▁Glaucon	-5436
▁Trojans	-5437
▁generals	-5438
▁Bonaparte	-5439
▁exhausted	-5440
▁ignorance	-5441
▁previously	-5442
iet	-5443
ands	-5444
chan	-5445
izes	-5446
▁pil	-5447
alled	-5448
icing	-5449
pired	-5450
▁June	-5451
▁deed	-5452
▁farm	-5453
▁meat	-5454
▁slee	-5455
▁test	-5456
▁Marse	-5457
▁drank	-5458
▁flank	-5459
▁wrink	-5460
▁yards	-5461
itement	-5462
▁chiefs	-5463
▁rulers	-5464
▁stayed	-5465
▁Eugénie	-5466
▁Italian	-5467
▁chariot	-5468
▁baroness	-5469
▁building	-5470
▁continue	-5471
▁daylight	-5472
▁division	-5473
▁Mikháylovna	-5474
RAN	-5475
bye	-5476
his	-5477
off	-5478
▁Di	-5479
▁Pri	-5480
▁dig	-5481
▁ice	-5482
▁irr	-5483
▁vex	-5484
▁Dmít	-5485
▁cord	-5486
▁mart	-5487
▁nodd	-5488
▁offe	-5489
▁prey	-5490
apping	-5491
isible	-5492
▁eaten	-5493
▁feels	-5494
▁north	-5495
▁stuff	-5496
looking	-5497
▁purple	-5498
▁tyrant	-5499
▁worked	-5500
▁careful	-5501
▁horizon	-5502
▁managed	-5503
▁objects	-5504
▁formerly	-5505
▁harpoone	-5506
▁perceive	-5507
▁violence	-5508
▁Bourienne	-5509
▁qualities	-5510
▁conclusion	-5511
▁formidable	-5512
▁distinguish	-5513
▁inhabitants	-5514
▁magnificent	-5515
Did	-5516
dys	-5517
kin	-5518
loo	-5519
▁Má	-5520
Look	-5521
aily	-5522
icip	-5523
stem	-5524
▁aut	-5525
▁shep	-5526
▁writ	-5527
▁crack	-5528
▁revol	-5529
▁bourge	-5530
▁failed	-5531
▁nation	-5532
▁praise	-5533
▁throne	-5534
▁council	-5535
▁mystery	-5536
▁usually	-5537
▁affected	-5538
▁upstairs	-5539
▁furniture	-5540
▁traveller	-5541
▁conviction	-5542
▁historians	-5543
3,	-5544
Mé	-5545
ads	-5546
opch	-5547
▁Cat	-5548
▁Des	-5549
▁Rev	-5550
▁Sep	-5551
oring	-5552
osure	-5553
▁Hans	-5554
▁keen	-5555
▁lack	-5556
▁mach	-5557
▁text	-5558
▁wave	-5559
▁fires	-5560
▁guess	-5561
▁renew	-5562
▁slave	-5563
▁solic	-5564
▁stiff	-5565
▁swear	-5566
▁uncom	-5567
▁August	-5568
▁exists	-5569
▁footst	-5570
▁nodded	-5571
▁closely	-5572
▁consent	-5573
▁contrad	-5574
▁remarks	-5575
▁comrades	-5576
▁constant	-5577
▁striking	-5578
▁excitement	-5579
▁proportion	-5580
yn	-5581
▁]	-5582
ECT	-5583
cast	-5584
khov	-5585
udes	-5586
▁VII	-5587
▁ard	-5588
▁liv	-5589
▁spl	-5590
▁Mich	-5591
▁anch	-5592
▁quit	-5593
▁veil	-5594
iently	-5595
▁agony	-5596
▁avail	-5597
▁beard	-5598
▁clock	-5599
▁manif	-5600
▁monst	-5601
▁refer	-5602
▁shone	-5603
▁branch	-5604
▁desert	-5605
▁prepar	-5606
▁sooner	-5607
▁wounds	-5608
▁alarmed	-5609
▁dancing	-5610
▁devoted	-5611
▁dragged	-5612
▁forever	-5613
▁related	-5614
▁Rostopch	-5615
▁Waterloo	-5616
▁attacked	-5617
▁included	-5618
▁reaching	-5619
▁announced	-5620
▁consequence	-5621
Un	-5622
eric	-5623
▁Vir	-5624
agues	-5625
aping	-5626
ember	-5627
▁knee	-5628
▁toil	-5629
▁bench	-5630
▁blows	-5631
▁grant	-5632
▁stout	-5633
▁Guards	-5634
▁Septem	-5635
▁Seward	-5636
▁begins	-5637
▁causes	-5638
▁democr	-5639
▁fought	-5640
▁murder	-5641
▁utmost	-5642
▁fearful	-5643
▁neglect	-5644
▁nonsense	-5645
▁weakness	-5646
▁guardians	-5647
▁preceding	-5648
▁universal	-5649
▁circumstance	-5650
Tis	-5651
▁glo	-5652
Méran	-5653
inate	-5654
rigny	-5655
▁abst	-5656
▁lift	-5657
▁resp	-5658
▁subl	-5659
▁vale	-5660
rences	-5661
▁Champ	-5662
▁artic	-5663
▁fruit	-5664
▁poets	-5665
▁trick	-5666
▁winds	-5667
▁absent	-5668
▁forbid	-5669
▁magist	-5670
▁comment	-5671
▁radiant	-5672
▁visitor	-5673
▁volunte	-5674
Certainly	-5675
▁goodness	-5676
▁heavenly	-5677
▁inclined	-5678
▁numerous	-5679
▁consciousness	-5680
An	-5681
ox	-5682
lers	-5683
ulse	-5684
▁Men	-5685
▁City	-5686
▁Most	-5687
▁Nant	-5688
▁obsc	-5689
riages	-5690
urance	-5691
▁Witch	-5692
▁armed	-5693
▁desir	-5694
▁needs	-5695
Avrigny	-5696
▁corrid	-5697
▁finish	-5698
▁helped	-5699
▁hungry	-5700
▁taught	-5701
▁abandon	-5702
▁assembl	-5703
▁dignity	-5704
▁fellows	-5705
▁galleys	-5706
▁wishing	-5707
▁deceived	-5708
▁subjects	-5709
▁September	-5710
▁appointed	-5711
▁expecting	-5712
▁Rostopchín	-5713
▁collection	-5714
▁description	-5715
,)	-5716
ns	-5717
IET	-5718
alf	-5719
amm	-5720
ollo	-5721
▁JUL	-5722
▁Tin	-5723
▁bas	-5724
▁ric	-5725
▁som	-5726
▁unm	-5727
ulate	-5728
▁East	-5729
▁debt	-5730
▁sear	-5731
▁sell	-5732
▁Which	-5733
▁bears	-5734
▁chain	-5735
▁drops	-5736
▁fatig	-5737
▁fired	-5738
▁guest	-5739
▁burned	-5740
▁defend	-5741
▁locked	-5742
▁shouts	-5743
▁hostile	-5744
▁portion	-5745
▁shaking	-5746
▁absorbed	-5747
▁recalled	-5748
▁precisely	-5749
▁Marseilles	-5750
sp	-5751
▁ast	-5752
chair	-5753
eries	-5754
▁adop	-5755
▁cool	-5756
▁ours	-5757
▁rese	-5758
▁sofa	-5759
▁whit	-5760
levard	-5761
▁White	-5762
▁awake	-5763
▁sheet	-5764
▁sperm	-5765
▁trace	-5766
▁JULIET	-5767
▁halted	-5768
▁hatred	-5769
▁insult	-5770
▁intent	-5771
▁larger	-5772
▁posted	-5773
▁throng	-5774
▁destiny	-5775
▁showing	-5776
▁moreover	-5777
▁religion	-5778
▁throwing	-5779
▁bourgeois	-5780
▁immediate	-5781
acc	-5782
arf	-5783
▁od	-5784
asse	-5785
izzy	-5786
thac	-5787
▁clos	-5788
▁crim	-5789
▁mild	-5790
▁oath	-5791
▁seam	-5792
▁tore	-5793
▁About	-5794
▁drown	-5795
▁linen	-5796
▁notes	-5797
▁Haydée	-5798
▁Island	-5799
▁consol	-5800
▁gallop	-5801
▁mechan	-5802
▁beloved	-5803
▁corrupt	-5804
▁quarters	-5805
▁Nantucket	-5806
▁invisible	-5807
▁pronounced	-5808
▁iv	-5809
vell	-5810
▁Arg	-5811
▁HIS	-5812
▁etc	-5813
▁hut	-5814
atory	-5815
pleas	-5816
uries	-5817
▁ends	-5818
▁rang	-5819
▁risk	-5820
atched	-5821
umbled	-5822
▁clasp	-5823
▁flash	-5824
▁maids	-5825
▁porch	-5826
▁trial	-5827
▁attain	-5828
▁loudly	-5829
▁retire	-5830
▁amongst	-5831
▁foolish	-5832
▁harmony	-5833
▁kingdom	-5834
▁nervous	-5835
▁plunged	-5836
▁steward	-5837
▁utterly	-5838
▁glorious	-5839
▁gratitude	-5840
▁intellectual	-5841
.—	-5842
amb	-5843
Take	-5844
agon	-5845
irty	-5846
ived	-5847
rive	-5848
▁Mer	-5849
▁tal	-5850
▁Sund	-5851
▁size	-5852
icious	-5853
▁Baron	-5854
▁Madam	-5855
▁devel	-5856
▁vehic	-5857
itating	-5858
ulation	-5859
ymachus	-5860
▁banker	-5861
▁softly	-5862
▁mission	-5863
▁crossing	-5864
▁concluded	-5865
▁principal	-5866
▁Mo	-5867
!...	-5868
lier	-5869
wood	-5870
▁Ven	-5871
▁bag	-5872
▁fed	-5873
arted	-5874
▁Eury	-5875
▁gown	-5876
▁oars	-5877
▁sous	-5878
▁trif	-5879
hether	-5880
▁Ithac	-5881
▁brief	-5882
▁chase	-5883
▁hunts	-5884
▁stage	-5885
▁stoop	-5886
▁teach	-5887
▁Apollo	-5888
▁battal	-5889
▁duties	-5890
▁incess	-5891
▁indign	-5892
▁powder	-5893
▁Majesty	-5894
▁pierced	-5895
▁rushing	-5896
▁agitated	-5897
▁fastened	-5898
▁infantry	-5899
▁pavement	-5900
▁advancing	-5901
▁performed	-5902
▁suggested	-5903
▁distribute	-5904
▁considering	-5905
▁17	-5906
Will	-5907
llen	-5908
uits	-5909
▁tot	-5910
eyore	-5911
ience	-5912
▁Bour	-5913
▁Soon	-5914
▁VIII	-5915
▁grim	-5916
▁heed	-5917
▁jave	-5918
istrib	-5919
versed	-5920
▁urged	-5921
ounding	-5922
▁Americ	-5923
▁bought	-5924
▁jealous	-5925
▁replace	-5926
▁unpleas	-5927
▁governor	-5928
▁hastened	-5929
▁visitors	-5930
▁admiration	-5931
ids	-5932
pin	-5933
rin	-5934
bits	-5935
five	-5936
rene	-5937
shop	-5938
énsk	-5939
▁hyp	-5940
inity	-5941
▁cher	-5942
▁fare	-5943
▁hang	-5944
leness	-5945
▁agent	-5946
▁angle	-5947
▁queer	-5948
▁feeble	-5949
▁leader	-5950
▁nobody	-5951
▁signal	-5952
▁system	-5953
▁victim	-5954
▁wouldn	-5955
▁bedroom	-5956
▁conquer	-5957
▁cunning	-5958
▁current	-5959
▁license	-5960
▁obscure	-5961
▁terrified	-5962
▁introduced	-5963
▁distributed	-5964
dy	-5965
sc	-5966
God	-5967
ael	-5968
uns	-5969
éev	-5970
Alas	-5971
liad	-5972
ágin	-5973
▁Him	-5974
▁tap	-5975
icted	-5976
ieved	-5977
▁Many	-5978
▁Till	-5979
▁dise	-5980
▁wasn	-5981
▁epoch	-5982
▁loves	-5983
▁spend	-5984
▁brains	-5985
▁pursue	-5986
▁rested	-5987
▁heavily	-5988
▁hussars	-5989
▁popular	-5990
▁prayers	-5991
▁quality	-5992
▁galloped	-5993
▁sacrific	-5994
EM	-5995
IR	-5996
—_	-5997
rya	-5998
emed	-5999
when	-6000
▁rat	-6001
istic	-6002
olves	-6003
otted	-6004
▁disd	-6005
▁west	-6006
▁XVIII	-6007
▁awoke	-6008
▁outer	-6009
▁shows	-6010
▁deadly	-6011
▁reward	-6012
▁squire	-6013
▁Colonel	-6014
▁attract	-6015
▁element	-6016
▁fancied	-6017
▁forgive	-6018
▁patient	-6019
▁problem	-6020
▁quarrel	-6021
▁distinctly	-6022
▁sufficiently	-6023
HI	-6024
bus	-6025
oqu	-6026
vet	-6027
vna	-6028
▁ol	-6029
▁WAR	-6030
▁bay	-6031
▁isn	-6032
▁non	-6033
▁unl	-6034
blanc	-6035
enter	-6036
overy	-6037
▁rosy	-6038
▁tied	-6039
eptune	-6040
▁apply	-6041
▁bands	-6042
▁block	-6043
▁murde	-6044
▁shrie	-6045
▁Eeyore	-6046
▁dining	-6047
▁establ	-6048
▁million	-6049
▁whaling	-6050
▁delicate	-6051
▁drinking	-6052
▁friendly	-6053
▁inspector	-6054
▁slightest	-6055
▁interested	-6056
▁thoroughly	-6057
▁accomplished	-6058
▁consideration	-6059
▁ST	-6060
olet	-6061
omin	-6062
ques	-6063
vest	-6064
▁Ara	-6065
▁Dan	-6066
adise	-6067
ially	-6068
▁doct	-6069
▁prud	-6070
▁sang	-6071
▁sust	-6072
▁corps	-6073
▁finds	-6074
▁Balash	-6075
▁loving	-6076
▁poured	-6077
▁stroke	-6078
▁writer	-6079
piration	-6080
▁divided	-6081
▁precaut	-6082
▁pursuit	-6083
▁recomme	-6084
▁staring	-6085
▁suggest	-6086
▁judgment	-6087
▁probable	-6088
▁troubled	-6089
[1	-6090
[2	-6091
cip	-6092
inc	-6093
tic	-6094
▁Mu	-6095
urre	-6096
uses	-6097
▁183	-6098
▁Pal	-6099
▁cas	-6100
▁shi	-6101
apsed	-6102
kward	-6103
▁Cont	-6104
▁Prov	-6105
▁eleg	-6106
▁flow	-6107
▁ride	-6108
ential	-6109
mother	-6110
▁Faria	-6111
▁ashes	-6112
▁irres	-6113
▁sadly	-6114
▁shoot	-6115
▁trous	-6116
▁couldn	-6117
▁prodig	-6118
▁relief	-6119
▁sighed	-6120
▁Leblanc	-6121
▁anybody	-6122
▁Penelope	-6123
▁disgrace	-6124
▁imagined	-6125
▁murderer	-6126
▁pictures	-6127
▁resolute	-6128
▁sympathy	-6129
▁household	-6130
▁intervals	-6131
AB	-6132
box	-6133
anth	-6134
etto	-6135
odin	-6136
▁Luc	-6137
▁cel	-6138
▁lat	-6139
▁libr	-6140
▁mead	-6141
▁unus	-6142
▁Roman	-6143
▁boast	-6144
▁brown	-6145
▁disch	-6146
▁obedi	-6147
▁rules	-6148
▁spout	-6149
▁valet	-6150
Project	-6151
▁Ithaca	-6152
▁partly	-6153
▁season	-6154
▁select	-6155
▁source	-6156
▁strict	-6157
▁whilst	-6158
▁Neptune	-6159
▁invited	-6160
▁slipped	-6161
▁stories	-6162
▁contrast	-6163
▁grateful	-6164
▁separate	-6165
▁Christian	-6166
▁profession	-6167
_;	-6168
ded	-6169
gil	-6170
rog	-6171
ymn	-6172
▁Fe	-6173
▁IX	-6174
mend	-6175
pper	-6176
▁odd	-6177
▁Dick	-6178
▁bows	-6179
▁frag	-6180
▁impr	-6181
▁Márya	-6182
▁Three	-6183
▁Would	-6184
▁borne	-6185
▁cloth	-6186
▁dozen	-6187
▁marsh	-6188
▁pains	-6189
▁purse	-6190
▁seize	-6191
▁vener	-6192
natural	-6193
▁begged	-6194
▁daring	-6195
▁handle	-6196
▁invest	-6197
▁lights	-6198
▁nights	-6199
▁parted	-6200
▁angrily	-6201
▁awkward	-6202
▁majesty	-6203
▁corridor	-6204
▁preserve	-6205
▁indicated	-6206
rs	-6207
BER	-6208
aon	-6209
don	-6210
str	-6211
▁FOR	-6212
▁buy	-6213
odinó	-6214
▁ages	-6215
▁bade	-6216
▁brig	-6217
▁buck	-6218
▁page	-6219
▁rail	-6220
▁tide	-6221
master	-6222
▁cheek	-6223
▁image	-6224
▁instr	-6225
▁landl	-6226
▁medic	-6227
▁sixty	-6228
▁loaded	-6229
▁consult	-6230
▁convuls	-6231
▁honours	-6232
▁torment	-6233
▁virtues	-6234
▁creation	-6235
▁inferior	-6236
▁acknowled	-6237
ESS	-6238
ITY	-6239
hor	-6240
occ	-6241
▁CAP	-6242
▁Tot	-6243
▁lux	-6244
after	-6245
ernal	-6246
erted	-6247
ulted	-6248
▁Span	-6249
▁gend	-6250
▁milk	-6251
▁Spart	-6252
▁naked	-6253
▁organ	-6254
▁plate	-6255
▁title	-6256
▁whirl	-6257
▁theory	-6258
▁weapon	-6259
ointment	-6260
▁crowded	-6261
▁knocked	-6262
▁library	-6263
▁natures	-6264
▁disturbed	-6265
▁strangers	-6266
▁thousands	-6267
▁engagement	-6268
▁philosophers	-6269
cto	-6270
ili	-6271
▁Li	-6272
▁ox	-6273
alls	-6274
iven	-6275
leus	-6276
utch	-6277
▁Ass	-6278
▁Cle	-6279
▁Ter	-6280
▁ded	-6281
▁rub	-6282
▁vir	-6283
amped	-6284
enger	-6285
▁Abbé	-6286
▁base	-6287
▁flee	-6288
▁pred	-6289
▁vall	-6290
ctober	-6291
▁Flask	-6292
▁Since	-6293
▁based	-6294
▁brand	-6295
▁disci	-6296
▁error	-6297
▁harsh	-6298
▁inner	-6299
▁labor	-6300
▁peril	-6301
▁shake	-6302
▁swept	-6303
▁courty	-6304
▁dishon	-6305
▁eldest	-6306
▁folded	-6307
▁propri	-6308
▁funeral	-6309
▁Borodinó	-6310
▁practice	-6311
▁proposed	-6312
▁adventure	-6313
▁attracted	-6314
▁slaughter	-6315
▁displaying	-6316
▁glittering	-6317
▁disposition	-6318
▁involuntarily	-6319
tr	-6320
bar	-6321
rot	-6322
hern	-6323
yard	-6324
▁Bel	-6325
▁dun	-6326
▁unb	-6327
emnon	-6328
▁Take	-6329
▁anti	-6330
▁caut	-6331
▁chin	-6332
▁soil	-6333
▁soot	-6334
▁sunk	-6335
▁trap	-6336
Father	-6337
isting	-6338
rievna	-6339
▁ahead	-6340
▁honey	-6341
▁mayor	-6342
▁tells	-6343
▁basket	-6344
▁detach	-6345
▁firmly	-6346
▁prompt	-6347
▁shades	-6348
attering	-6349
▁beating	-6350
▁sorrows	-6351
▁valiant	-6352
▁recovered	-6353
▁Dmítrievna	-6354
ai	-6355
iour	-6356
itty	-6357
osal	-6358
reek	-6359
▁Alc	-6360
▁Any	-6361
▁Old	-6362
Never	-6363
anges	-6364
irect	-6365
oting	-6366
ulars	-6367
▁Vamp	-6368
▁aged	-6369
▁curs	-6370
▁jack	-6371
estial	-6372
ilight	-6373
▁Priam	-6374
▁price	-6375
▁tower	-6376
amation	-6377
amemnon	-6378
enelaus	-6379
fulness	-6380
▁breeze	-6381
▁extrem	-6382
▁ruined	-6383
▁smooth	-6384
▁deliber	-6385
▁painted	-6386
▁sincere	-6387
▁animated	-6388
▁compared	-6389
▁editions	-6390
▁helpless	-6391
▁overcome	-6392
▁starting	-6393
▁agitation	-6394
▁furnished	-6395
▁preserved	-6396
▁Revolution	-6397
▁observation	-6398
▁requirements	-6399
UM	-6400
euf	-6401
▁ic	-6402
▁Han	-6403
▁Kar	-6404
▁rom	-6405
gging	-6406
▁Cors	-6407
▁chap	-6408
▁encl	-6409
▁halt	-6410
▁nois	-6411
▁prow	-6412
▁puzz	-6413
▁temp	-6414
olénsk	-6415
▁North	-6416
▁deeds	-6417
▁kinds	-6418
▁quant	-6419
▁tight	-6420
▁views	-6421
▁energy	-6422
▁riding	-6423
▁October	-6424
▁nearest	-6425
▁reports	-6426
▁armchair	-6427
▁arrested	-6428
▁conflict	-6429
▁monsieur	-6430
▁obtained	-6431
▁restored	-6432
▁carriages	-6433
▁courtyard	-6434
▁scattered	-6435
.1	-6436
UN	-6437
Ind	-6438
pet	-6439
tur	-6440
▁Er	-6441
ENCE	-6442
ools	-6443
▁CON	-6444
▁owe	-6445
ashes	-6446
inent	-6447
▁fain	-6448
▁hint	-6449
▁vice	-6450
escrib	-6451
ferent	-6452
▁Thras	-6453
▁flock	-6454
▁folly	-6455
▁gifts	-6456
▁stead	-6457
raction	-6458
▁Little	-6459
▁accent	-6460
▁disple	-6461
▁highly	-6462
▁senses	-6463
▁Michael	-6464
▁sublime	-6465
▁visited	-6466
▁welcome	-6467
▁whereas	-6468
▁Smolénsk	-6469
▁cloister	-6470
▁intimate	-6471
▁indescrib	-6472
▁Englishman	-6473
oft	-6474
uan	-6475
uke	-6476
more	-6477
pled	-6478
▁hit	-6479
Thank	-6480
atisf	-6481
lotte	-6482
orney	-6483
▁mant	-6484
▁sche	-6485
▁tend	-6486
orable	-6487
verted	-6488
▁Helen	-6489
▁South	-6490
▁sails	-6491
▁thine	-6492
▁vault	-6493
Nothing	-6494
▁lament	-6495
▁resign	-6496
▁sailed	-6497
▁applied	-6498
▁members	-6499
▁obvious	-6500
▁supreme	-6501
▁acquired	-6502
▁prospect	-6503
▁solitary	-6504
▁trousers	-6505
▁completed	-6506
▁throughout	-6507
”—	-6508
Can	-6509
cst	-6510
oni	-6511
Just	-6512
ULET	-6513
itor	-6514
opes	-6515
text	-6516
▁Duc	-6517
▁Mab	-6518
▁Ren	-6519
▁Sch	-6520
▁row	-6521
▁alas	-6522
▁cock	-6523
▁nurs	-6524
▁unin	-6525
Indeed	-6526
▁carts	-6527
▁recon	-6528
▁scrut	-6529
icating	-6530
▁incred	-6531
▁lovers	-6532
▁sombre	-6533
▁CAPULET	-6534
▁counter	-6535
▁sending	-6536
▁smoking	-6537
▁stretch	-6538
▁tremble	-6539
▁coursers	-6540
▁executed	-6541
▁independ	-6542
▁summoned	-6543
▁Agamemnon	-6544
▁amazement	-6545
▁seriously	-6546
▁descending	-6547
▁indifferent	-6548
▁particulars	-6549
▁indifference	-6550
3]	-6551
LA	-6552
wr	-6553
eng	-6554
hip	-6555
ford	-6556
iasm	-6557
ovel	-6558
urst	-6559
▁180	-6560
▁mas	-6561
▁vac	-6562
irmed	-6563
stead	-6564
▁Berg	-6565
▁Poly	-6566
▁bond	-6567
▁ecst	-6568
▁fest	-6569
▁roar	-6570
00,000	-6571
rained	-6572
verend	-6573
▁alike	-6574
▁fifth	-6575
▁intim	-6576
▁phant	-6577
▁vivid	-6578
▁admire	-6579
▁anchor	-6580
▁armour	-6581
▁marble	-6582
▁notary	-6583
▁Neither	-6584
▁chiefly	-6585
▁disdain	-6586
▁disturb	-6587
▁emerged	-6588
▁readily	-6589
▁suspect	-6590
▁Menelaus	-6591
▁attended	-6592
▁awaiting	-6593
▁describe	-6594
▁mournful	-6595
▁collected	-6596
▁prevented	-6597
▁providing	-6598
▁strangely	-6599
▁magistrate	-6600
▁reasonable	-6601
▁unpleasant	-6602
▁established	-6603
erer	-6604
▁Ste	-6605
▁gig	-6606
ilson	-6607
oress	-6608
piece	-6609
▁serf	-6610
▁Ilion	-6611
▁clerk	-6612
▁leads	-6613
▁mixed	-6614
▁ruler	-6615
inction	-6616
▁commit	-6617
▁detail	-6618
▁holder	-6619
▁losing	-6620
▁masses	-6621
▁settle	-6622
▁unlike	-6623
▁Without	-6624
▁bending	-6625
▁dearest	-6626
▁leagues	-6627
▁sounded	-6628
▁abruptly	-6629
▁bestowed	-6630
▁hitherto	-6631
▁reported	-6632
▁shepherd	-6633
▁twilight	-6634
▁consisted	-6635
▁extremely	-6636
▁hurriedly	-6637
▁shuddered	-6638
▁constantly	-6639
▁occasionally	-6640
▁recollection	-6641
5]	-6642
uv	-6643
See	-6644
col	-6645
evi	-6646
har	-6647
lla	-6648
osp	-6649
zed	-6650
ogue	-6651
tree	-6652
▁Bab	-6653
▁fem	-6654
ilful	-6655
ourse	-6656
pring	-6657
▁Sher	-6658
cribed	-6659
▁heaps	-6660
▁steep	-6661
▁sweep	-6662
▁Wilson	-6663
▁abroad	-6664
▁habits	-6665
▁hoarse	-6666
▁plenty	-6667
▁polite	-6668
▁shared	-6669
▁thresh	-6670
fortunes	-6671
lessness	-6672
▁amiable	-6673
▁breathe	-6674
▁copying	-6675
▁sentine	-6676
▁wanting	-6677
▁destined	-6678
▁disposed	-6679
▁district	-6680
▁politics	-6681
▁pressing	-6682
▁celestial	-6683
▁disappear	-6684
▁footsteps	-6685
▁violently	-6686
▁tenderness	-6687
,—“	-6688
aks	-6689
edy	-6690
gic	-6691
hew	-6692
inn	-6693
jud	-6694
kov	-6695
four	-6696
rois	-6697
▁Bez	-6698
▁vel	-6699
▁wip	-6700
aging	-6701
ppino	-6702
▁aven	-6703
▁corn	-6704
▁webs	-6705
dyssey	-6706
ington	-6707
uously	-6708
▁brass	-6709
▁Sunday	-6710
▁absurd	-6711
▁altern	-6712
▁endure	-6713
▁series	-6714
▁status	-6715
▁anticip	-6716
▁concent	-6717
▁cottage	-6718
▁crushed	-6719
▁respons	-6720
▁Gardiner	-6721
▁Sherlock	-6722
▁definite	-6723
▁disorder	-6724
▁opinions	-6725
▁elsewhere	-6726
▁inquiries	-6727
▁resembled	-6728
▁traversed	-6729
▁Providence	-6730
▁misfortunes	-6731
4]	-6732
6]	-6733
EL	-6734
oph	-6735
shot	-6736
ties	-6737
your	-6738
▁***	-6739
▁gam	-6740
▁ner	-6741
ATION	-6742
▁July	-6743
▁bord	-6744
▁unre	-6745
igneur	-6746
ograph	-6747
▁Royal	-6748
▁balls	-6749
▁doesn	-6750
▁polic	-6751
▁wives	-6752
ulating	-6753
▁labour	-6754
▁perish	-6755
▁complex	-6756
▁cutting	-6757
▁embrace	-6758
▁returns	-6759
▁realized	-6760
▁encounter	-6761
▁meanwhile	-6762
▁threshold	-6763
▁historical	-6764
ki	-6765
unn	-6766
▁10	-6767
▁Ro	-6768
litz	-6769
▁Cor	-6770
▁fox	-6771
▁jaw	-6772
▁ske	-6773
▁tur	-6774
rides	-6775
▁dram	-6776
▁jail	-6777
▁perf	-6778
▁rags	-6779
▁rout	-6780
▁wars	-6781
akened	-6782
▁Black	-6783
▁dimin	-6784
▁equip	-6785
▁haven	-6786
▁serge	-6787
▁toils	-6788
▁repose	-6789
▁thence	-6790
▁Peppino	-6791
▁audible	-6792
▁contact	-6793
▁harness	-6794
▁javelin	-6795
▁madness	-6796
▁replies	-6797
▁vessels	-6798
usterlitz	-6799
▁ascended	-6800
▁captured	-6801
▁confined	-6802
▁insisted	-6803
▁strongly	-6804
▁commanded	-6805
▁discovery	-6806
▁displayed	-6807
▁containing	-6808
▁delightful	-6809
▁punishment	-6810
▁encountered	-6811
▁represented	-6812
7]	-6813
8]	-6814
Per	-6815
rah	-6816
rat	-6817
wind	-6818
ítski	-6819
▁Toto	-6820
▁club	-6821
▁pole	-6822
▁rays	-6823
▁silk	-6824
▁subs	-6825
▁warn	-6826
ifying	-6827
▁Grand	-6828
▁March	-6829
▁alter	-6830
▁cares	-6831
▁chose	-6832
▁dirty	-6833
▁elbow	-6834
▁greet	-6835
▁inval	-6836
▁liter	-6837
▁theat	-6838
▁Gretel	-6839
▁cellar	-6840
▁fairly	-6841
▁haught	-6842
▁patron	-6843
▁portra	-6844
▁prayed	-6845
▁refuge	-6846
▁steady	-6847
▁leather	-6848
▁lightly	-6849
▁resting	-6850
▁disclaim	-6851
▁evidence	-6852
▁guardian	-6853
▁transport	-6854
▁accordance	-6855
▁increasing	-6856
▁ridiculous	-6857
▁thoughtful	-6858
opy	-6859
▁AG	-6860
▁Jac	-6861
▁PAR	-6862
▁aby	-6863
▁wre	-6864
Greek	-6865
mercy	-6866
wenty	-6867
▁cult	-6868
▁fees	-6869
▁pour	-6870
aviour	-6871
▁boxes	-6872
▁disag	-6873
▁dwarf	-6874
▁incon	-6875
▁insol	-6876
▁slang	-6877
▁torch	-6878
▁bestow	-6879
▁calmly	-6880
▁coarse	-6881
▁incomp	-6882
▁retain	-6883
▁string	-6884
▁glimpse	-6885
▁inquire	-6886
▁martial	-6887
▁learning	-6888
▁passions	-6889
▁withdraw	-6890
▁Charlotte	-6891
▁Austerlitz	-6892
▁celebrated	-6893
▁compliance	-6894
▁enthusiasm	-6895
▁volunteers	-6896
▁x	-6897
ERC	-6898
bol	-6899
yes	-6900
▁ug	-6901
JECT	-6902
URSE	-6903
UTEN	-6904
ldom	-6905
otes	-6906
▁Oly	-6907
▁fol	-6908
enses	-6909
uming	-6910
▁Full	-6911
▁cave	-6912
▁deny	-6913
▁glow	-6914
▁onto	-6915
alming	-6916
▁NURSE	-6917
▁disgu	-6918
▁flour	-6919
▁steam	-6920
umbling	-6921
▁assume	-6922
▁attach	-6923
▁driver	-6924
▁eleven	-6925
▁lively	-6926
▁online	-6927
▁reject	-6928
▁united	-6929
▁William	-6930
▁flushed	-6931
▁letting	-6932
▁limited	-6933
▁departed	-6934
▁external	-6935
▁merchant	-6936
▁restrain	-6937
▁sensible	-6938
▁admirable	-6939
▁assembled	-6940
▁tolerably	-6941
▁individuals	-6942
▁instructions	-6943
5,	-6944
ii	-6945
bon	-6946
▁Cy	-6947
aise	-6948
lets	-6949
peak	-6950
▁Hen	-6951
▁fog	-6952
▁wax	-6953
inese	-6954
ribly	-6955
▁doom	-6956
▁gore	-6957
▁hers	-6958
▁pile	-6959
▁ruff	-6960
▁wash	-6961
headed	-6962
manuel	-6963
▁Vampa	-6964
▁cerem	-6965
▁fiery	-6966
▁risen	-6967
▁stret	-6968
arnasse	-6969
ceiving	-6970
▁bewild	-6971
▁survey	-6972
ositions	-6973
seigneur	-6974
▁defence	-6975
▁parties	-6976
▁pockets	-6977
▁results	-6978
urrection	-6979
▁comparis	-6980
▁embraced	-6981
▁inspired	-6982
▁situated	-6983
rehensible	-6984
▁Pontmercy	-6985
▁contented	-6986
▁president	-6987
▁procureur	-6988
▁hesitation	-6989
▁Information	-6990
▁overwhelmed	-6991
BERG	-6992
From	-6993
hole	-6994
▁bol	-6995
▁cyl	-6996
▁nav	-6997
ferre	-6998
heard	-6999
ifted	-7000
ovich	-7001
uable	-7002
▁Benn	-7003
▁Both	-7004
▁Kung	-7005
▁clam	-7006
▁damp	-7007
▁trib	-7008
▁type	-7009
Listen	-7010
▁Combe	-7011
▁GUTEN	-7012
▁inher	-7013
▁People	-7014
▁collar	-7015
▁darted	-7016
▁dashed	-7017
▁permit	-7018
▁seldom	-7019
▁wolves	-7020
▁Chinese	-7021
▁PROJECT	-7022
▁battery	-7023
▁comrade	-7024
▁feather	-7025
▁machine	-7026
▁recover	-7027
▁variety	-7028
▁whither	-7029
▁wrapped	-7030
▁families	-7031
▁gigantic	-7032
▁landlord	-7033
▁persuade	-7034
▁quantity	-7035
▁tranquil	-7036
▁GUTENBERG	-7037
▁childhood	-7038
▁compelled	-7039
▁substance	-7040
▁suspicion	-7041
▁provisions	-7042
▁reputation	-7043
▁Thrasymachus	-7044
▁civilization	-7045
OS	-7046
RA	-7047
—‘	-7048
HAT	-7049
any	-7050
sem	-7051
why	-7052
▁11	-7053
▁ON	-7054
▁SE	-7055
gent	-7056
mber	-7057
▁ANY	-7058
▁Pre	-7059
▁vap	-7060
bourn	-7061
eenth	-7062
eling	-7063
press	-7064
▁Sign	-7065
▁bend	-7066
▁chem	-7067
▁diff	-7068
▁doll	-7069
▁runs	-7070
▁ugly	-7071
everal	-7072
itudes	-7073
▁Among	-7074
▁Grant	-7075
▁Montp	-7076
▁Peter	-7077
▁Right	-7078
▁ample	-7079
▁annoy	-7080
ciences	-7081
▁Mabeuf	-7082
▁WARRAN	-7083
▁comput	-7084
▁danced	-7085
▁format	-7086
▁humble	-7087
▁mirror	-7088
▁musket	-7089
▁obeyed	-7090
▁passes	-7091
▁record	-7092
▁signed	-7093
▁speaks	-7094
▁Atrides	-7095
▁remorse	-7096
▁unusual	-7097
▁website	-7098
▁breathed	-7099
▁devotion	-7100
▁medicine	-7101
▁revealed	-7102
▁warriors	-7103
▁Godalming	-7104
▁Longbourn	-7105
▁hesitated	-7106
▁monstrous	-7107
▁multitude	-7108
▁Combeferre	-7109
▁comfortable	-7110
▁Montparnasse	-7111
zh	-7112
▁Iv	-7113
grat	-7114
lain	-7115
plom	-7116
▁Bet	-7117
▁Pel	-7118
▁cru	-7119
▁ine	-7120
▁net	-7121
▁san	-7122
pends	-7123
▁boys	-7124
▁brid	-7125
▁gymn	-7126
▁jest	-7127
▁puff	-7128
▁rubb	-7129
▁woke	-7130
ounted	-7131
▁Baker	-7132
▁craft	-7133
▁ingen	-7134
▁store	-7135
▁stuck	-7136
utenant	-7137
▁hussar	-7138
▁inevit	-7139
▁remove	-7140
▁supply	-7141
ceptible	-7142
standing	-7143
▁cleared	-7144
▁seconds	-7145
▁criminal	-7146
▁interior	-7147
▁replaced	-7148
▁solitude	-7149
▁squadron	-7150
▁troubles	-7151
▁establish	-7152
▁fortunate	-7153
▁messenger	-7154
▁moonlight	-7155
▁intelligent	-7156
see	-7157
icks	-7158
reci	-7159
▁Jun	-7160
▁War	-7161
▁aug	-7162
▁orn	-7163
▁sou	-7164
icken	-7165
uince	-7166
unter	-7167
▁Bear	-7168
▁baby	-7169
▁este	-7170
▁stol	-7171
▁whip	-7172
atical	-7173
ension	-7174
▁aloft	-7175
▁apple	-7176
▁blank	-7177
▁merit	-7178
▁suite	-7179
▁bloody	-7180
▁cities	-7181
▁conven	-7182
▁deeper	-7183
▁joyful	-7184
▁notion	-7185
▁reappe	-7186
▁safely	-7187
▁conject	-7188
▁fatigue	-7189
▁harpoon	-7190
▁illness	-7191
▁somehow	-7192
▁species	-7193
▁Cossacks	-7194
▁floating	-7195
▁offering	-7196
▁recently	-7197
▁ventured	-7198
▁boulevard	-7199
▁examining	-7200
▁preparing	-7201
▁sentiment	-7202
▁performing	-7203
▁spectacles	-7204
▁acknowledge	-7205
▁reflections	-7206
▁significance	-7207
ét	-7208
aux	-7209
éra	-7210
▁cu	-7211
outs	-7212
some	-7213
tell	-7214
upon	-7215
▁Jim	-7216
▁Mil	-7217
▁fil	-7218
▁ink	-7219
▁spy	-7220
arged	-7221
pinay	-7222
stone	-7223
▁Bapt	-7224
▁MERC	-7225
▁Mond	-7226
▁gets	-7227
▁noon	-7228
▁resc	-7229
▁salt	-7230
ground	-7231
ighted	-7232
uincey	-7233
▁Jonah	-7234
▁Whose	-7235
▁crest	-7236
▁depos	-7237
▁giant	-7238
▁mouse	-7239
▁ashore	-7240
▁assert	-7241
▁brazen	-7242
▁brings	-7243
▁mathem	-7244
▁unwill	-7245
▁yonder	-7246
▁intense	-7247
▁lowered	-7248
▁missing	-7249
▁printed	-7250
▁receipt	-7251
▁restore	-7252
▁complain	-7253
▁decision	-7254
▁elements	-7255
▁relative	-7256
▁tranquill	-7257
▁waistcoat	-7258
▁commission	-7259
▁compassion	-7260
▁directions	-7261
▁attentively	-7262
0]	-7263
1]	-7264
2]	-7265
▁-	-7266
isk	-7267
uet	-7268
▁—_	-7269
plex	-7270
▁deb	-7271
▁hed	-7272
cause	-7273
▁pear	-7274
▁stom	-7275
▁Arist	-7276
▁Iliad	-7277
▁Lizzy	-7278
▁couch	-7279
▁frost	-7280
▁incap	-7281
▁marks	-7282
▁owing	-7283
▁actual	-7284
▁bodily	-7285
▁burden	-7286
▁crimes	-7287
▁harmon	-7288
▁hiding	-7289
▁member	-7290
▁smiles	-7291
▁specul	-7292
▁tailor	-7293
▁traces	-7294
ulations	-7295
▁Barrois	-7296
▁control	-7297
▁costume	-7298
▁derived	-7299
▁despite	-7300
▁earlier	-7301
▁killing	-7302
▁mothers	-7303
▁refrain	-7304
▁reverie	-7305
▁swiftly	-7306
▁somebody	-7307
▁wherever	-7308
▁essential	-7309
▁fortnight	-7310
▁obscurity	-7311
▁sensation	-7312
hum	-7313
ork	-7314
pel	-7315
ste	-7316
▁Cr	-7317
empt	-7318
mind	-7319
odes	-7320
rels	-7321
rons	-7322
uite	-7323
▁Eum	-7324
▁Owl	-7325
▁ech	-7326
▁ray	-7327
break	-7328
ersed	-7329
guard	-7330
▁craw	-7331
▁foes	-7332
▁hind	-7333
▁rent	-7334
▁tact	-7335
ranean	-7336
sembly	-7337
▁Olymp	-7338
▁color	-7339
▁disin	-7340
▁ivory	-7341
▁limit	-7342
▁unity	-7343
ilities	-7344
▁beaten	-7345
▁chairs	-7346
▁diplom	-7347
▁exting	-7348
▁lately	-7349
▁tables	-7350
opyright	-7351
▁Baptist	-7352
▁barrier	-7353
▁belongs	-7354
▁ceiling	-7355
▁changes	-7356
▁degrees	-7357
▁dismiss	-7358
▁grasped	-7359
▁guessed	-7360
▁newspap	-7361
▁panting	-7362
▁perplex	-7363
▁prolong	-7364
▁sinking	-7365
▁Emmanuel	-7366
▁changing	-7367
▁headlong	-7368
▁marrying	-7369
▁reverend	-7370
▁construct	-7371
▁impatient	-7372
▁uncertain	-7373
▁additional	-7374
▁comparison	-7375
▁discussion	-7376
▁exceedingly	-7377
;”	-7378
HT	-7379
Mr	-7380
áy	-7381
His	-7382
tes	-7383
íkh	-7384
Dear	-7385
anga	-7386
bler	-7387
emet	-7388
have	-7389
lest	-7390
▁Far	-7391
▁Mur	-7392
▁Pyl	-7393
▁apt	-7394
▁sen	-7395
▁ton	-7396
▁vul	-7397
atson	-7398
iring	-7399
olded	-7400
íkhon	-7401
▁Alas	-7402
▁bath	-7403
▁blew	-7404
▁ling	-7405
▁peop	-7406
angled	-7407
usions	-7408
▁lands	-7409
▁links	-7410
▁procl	-7411
▁reass	-7412
▁track	-7413
▁veins	-7414
hearted	-7415
▁charms	-7416
▁insist	-7417
▁interm	-7418
▁lasted	-7419
▁waking	-7420
▁Because	-7421
▁Cossack	-7422
▁Martian	-7423
▁Several	-7424
▁Spanish	-7425
▁congrat	-7426
▁corners	-7427
▁demands	-7428
▁haughty	-7429
▁redoubt	-7430
▁shelter	-7431
▁stomach	-7432
▁tempest	-7433
▁upright	-7434
▁wealthy	-7435
▁announce	-7436
▁deprived	-7437
▁exercise	-7438
▁incident	-7439
▁likewise	-7440
▁sinister	-7441
▁wondering	-7442
▁sufferings	-7443
▁illuminated	-7444
▁translation	-7445
▁indescribable	-7446
OW	-7447
sm	-7448
íl	-7449
ILL	-7450
asm	-7451
ped	-7452
▁(1	-7453
▁Co	-7454
Tell	-7455
apes	-7456
arts	-7457
even	-7458
gest	-7459
gged	-7460
illa	-7461
pass	-7462
quet	-7463
rant	-7464
▁DIS	-7465
▁Gen	-7466
▁gri	-7467
▁ped	-7468
dides	-7469
forth	-7470
gthen	-7471
liest	-7472
verty	-7473
▁Bild	-7474
▁Pall	-7475
▁bark	-7476
▁crow	-7477
▁load	-7478
▁vest	-7479
ensity	-7480
ponine	-7481
worthy	-7482
▁Kanga	-7483
▁appet	-7484
▁dried	-7485
▁serfs	-7486
ressing	-7487
▁Tíkhon	-7488
▁Virgil	-7489
▁Watson	-7490
▁horrid	-7491
▁inward	-7492
▁reckon	-7493
▁relate	-7494
▁awaited	-7495
▁battles	-7496
▁godlike	-7497
▁hunting	-7498
▁improve	-7499
▁masters	-7500
▁poverty	-7501
▁favorite	-7502
▁gardener	-7503
▁increase	-7504
▁intently	-7505
▁sounding	-7506
▁answering	-7507
▁anxiously	-7508
▁assurance	-7509
▁applicable	-7510
▁comprehend	-7511
▁simplicity	-7512
▁travelling	-7513
▁uneasiness	-7514
ID	-7515
nes	-7516
pul	-7517
▁15	-7518
▁50	-7519
▁Lo	-7520
HICH	-7521
cont	-7522
oard	-7523
olly	-7524
rust	-7525
▁dru	-7526
▁err	-7527
▁fow	-7528
actor	-7529
ánski	-7530
▁Moby	-7531
▁Poor	-7532
▁dine	-7533
▁joke	-7534
▁lane	-7535
▁lone	-7536
▁meal	-7537
▁mile	-7538
▁olig	-7539
inking	-7540
▁Bened	-7541
▁Swift	-7542
▁acted	-7543
▁altar	-7544
▁grows	-7545
▁legal	-7546
▁ninet	-7547
▁ruins	-7548
▁scorn	-7549
▁spies	-7550
▁swarm	-7551
▁Morris	-7552
▁adored	-7553
▁autumn	-7554
▁button	-7555
▁catast	-7556
▁resour	-7557
ustrious	-7558
▁candles	-7559
▁contrib	-7560
▁declare	-7561
▁deliver	-7562
▁draught	-7563
▁inquiry	-7564
▁message	-7565
▁partner	-7566
▁privile	-7567
▁pulling	-7568
▁smaller	-7569
▁studied	-7570
▁superst	-7571
▁conquest	-7572
▁contract	-7573
▁interval	-7574
▁irresist	-7575
▁oligarch	-7576
▁properly	-7577
▁transfer	-7578
▁youthful	-7579
▁interview	-7580
▁invitation	-7581
▁examination	-7582
2)	-7583
Ar	-7584
CEN	-7585
top	-7586
two	-7587
upt	-7588
▁Sl	-7589
▁ta	-7590
anim	-7591
zing	-7592
▁cig	-7593
▁dar	-7594
▁yon	-7595
igsen	-7596
urely	-7597
▁Hipp	-7598
▁bind	-7599
▁dang	-7600
▁flut	-7601
▁mode	-7602
▁owed	-7603
▁peep	-7604
▁rasc	-7605
▁sobs	-7606
▁surv	-7607
▁trip	-7608
resses	-7609
▁Mamma	-7610
▁appar	-7611
▁beach	-7612
▁crept	-7613
▁guilt	-7614
▁hears	-7615
▁scale	-7616
▁scept	-7617
▁seats	-7618
▁Indian	-7619
▁cavern	-7620
▁decide	-7621
▁facing	-7622
▁female	-7623
▁guards	-7624
▁ladder	-7625
▁perpet	-7626
▁accused	-7627
▁benevol	-7628
▁discern	-7629
▁disease	-7630
▁emperor	-7631
▁leaders	-7632
▁respond	-7633
▁scrutin	-7634
▁disagree	-7635
▁exchange	-7636
▁sergeant	-7637
▁carpenter	-7638
▁equipment	-7639
▁repeating	-7640
▁authorities	-7641
▁affectionate	-7642
ITH	-7643
?...	-7644
boat	-7645
maid	-7646
shin	-7647
udge	-7648
▁Dol	-7649
▁XVI	-7650
▁eag	-7651
▁lur	-7652
▁rav	-7653
▁hath	-7654
▁heir	-7655
▁lust	-7656
▁pine	-7657
▁scru	-7658
▁slip	-7659
▁spin	-7660
▁Enter	-7661
▁abyss	-7662
▁array	-7663
▁banks	-7664
▁cards	-7665
▁eloqu	-7666
▁hated	-7667
▁hotel	-7668
▁thief	-7669
Perhaps	-7670
▁eighty	-7671
▁motive	-7672
▁stolen	-7673
▁valley	-7674
▁confirm	-7675
▁venture	-7676
▁Austrian	-7677
▁assembly	-7678
▁bleeding	-7679
▁graceful	-7680
▁investig	-7681
▁noticing	-7682
▁treacher	-7683
▁youngest	-7684
▁Bennigsen	-7685
▁Speránski	-7686
▁behaviour	-7687
▁catastrop	-7688
▁extremity	-7689
▁innocence	-7690
▁supposing	-7691
▁apartments	-7692
▁calculated	-7693
▁generations	-7694
▁neighborhood	-7695
ré	-7696
ada	-7697
igi	-7698
ilí	-7699
▁20	-7700
▁30	-7701
▁EX	-7702
▁Ho	-7703
▁LA	-7704
Pooh	-7705
▁Haw	-7706
▁XIV	-7707
▁nod	-7708
▁woo	-7709
ensed	-7710
loire	-7711
unken	-7712
▁Boss	-7713
▁Supp	-7714
▁beds	-7715
▁bone	-7716
▁butt	-7717
▁hiss	-7718
▁sack	-7719
Really	-7720
necess	-7721
otions	-7722
▁bloom	-7723
▁exhib	-7724
▁goods	-7725
▁impet	-7726
▁manly	-7727
▁older	-7728
▁prost	-7729
▁snuff	-7730
chamber	-7731
iveness	-7732
▁beasts	-7733
▁chains	-7734
▁market	-7735
▁pillow	-7736
▁repuls	-7737
▁summit	-7738
▁tossed	-7739
▁victor	-7740
▁Whether	-7741
▁admired	-7742
▁impulse	-7743
▁marvell	-7744
▁vaguely	-7745
▁Magloire	-7746
▁creating	-7747
▁expenses	-7748
▁manifest	-7749
▁offended	-7750
▁patience	-7751
▁peaceful	-7752
▁community	-7753
▁confident	-7754
▁confirmed	-7755
▁reasoning	-7756
▁reception	-7757
▁religious	-7758
▁suspended	-7759
▁swallowed	-7760
▁Wellington	-7761
▁breathless	-7762
▁distinction	-7763
2,	-7764
▁z	-7765
Cap	-7766
pus	-7767
rim	-7768
time	-7769
umps	-7770
▁Dav	-7771
▁Ily	-7772
▁tig	-7773
alect	-7774
iated	-7775
ucing	-7776
uding	-7777
▁Duke	-7778
▁Give	-7779
▁Levi	-7780
▁bulw	-7781
▁enqu	-7782
▁lawy	-7783
▁mask	-7784
▁rude	-7785
▁surm	-7786
asions	-7787
idents	-7788
soever	-7789
▁decor	-7790
▁delic	-7791
▁eleph	-7792
▁frank	-7793
▁tones	-7794
▁walks	-7795
certain	-7796
▁Pallas	-7797
▁beggar	-7798
▁closer	-7799
▁punish	-7800
▁renown	-7801
▁towers	-7802
aneously	-7803
inations	-7804
▁endless	-7805
▁granted	-7806
▁labours	-7807
▁springs	-7808
▁warning	-7809
▁portrait	-7810
▁screamed	-7811
▁Grantaire	-7812
▁Therefore	-7813
▁accompany	-7814
▁conducted	-7815
▁determine	-7816
▁happening	-7817
▁retreated	-7818
▁suspected	-7819
▁unnatural	-7820
▁harpooneer	-7821
▁probability	-7822
▁contemplation	-7823
eg	-7824
REE	-7825
mas	-7826
ril	-7827
six	-7828
uts	-7829
vre	-7830
▁AS	-7831
cies	-7832
oked	-7833
ouch	-7834
▁Tow	-7835
▁XII	-7836
▁axe	-7837
▁unw	-7838
Uncle	-7839
cribe	-7840
occup	-7841
▁Book	-7842
▁Hell	-7843
▁Juno	-7844
▁deaf	-7845
▁duel	-7846
▁foam	-7847
▁grav	-7848
▁lawn	-7849
▁stag	-7850
return	-7851
▁Death	-7852
▁cemet	-7853
▁lodge	-7854
▁perse	-7855
▁trade	-7856
▁Bildad	-7857
▁doubts	-7858
▁fitted	-7859
▁planks	-7860
▁scenes	-7861
▁travel	-7862
▁drunken	-7863
▁elapsed	-7864
▁glances	-7865
▁glasses	-7866
▁grating	-7867
▁pistols	-7868
▁sailing	-7869
▁seizing	-7870
▁thanked	-7871
▁bitterly	-7872
▁memories	-7873
▁mischief	-7874
▁pleasing	-7875
▁available	-7876
▁centuries	-7877
▁defective	-7878
▁exchanged	-7879
▁narrative	-7880
▁obtaining	-7881
▁physician	-7882
▁paragraphs	-7883
▁proceeding	-7884
▁yourselves	-7885
IC	-7886
”;	-7887
aft	-7888
asy	-7889
bin	-7890
cus	-7891
ica	-7892
pen	-7893
rue	-7894
son	-7895
apel	-7896
deim	-7897
meil	-7898
past	-7899
phew	-7900
▁Nes	-7901
▁Roo	-7902
▁ain	-7903
▁fie	-7904
▁ram	-7905
▁wag	-7906
antus	-7907
leton	-7908
ordan	-7909
▁Iván	-7910
▁WITH	-7911
▁cham	-7912
▁tiny	-7913
itious	-7914
liness	-7915
▁Adeim	-7916
▁Guard	-7917
▁Hills	-7918
▁daily	-7919
▁indef	-7920
▁pitch	-7921
▁tread	-7922
fermeil	-7923
▁Indeed	-7924
▁Nether	-7925
▁elbows	-7926
▁mental	-7927
▁missed	-7928
▁nephew	-7929
▁roused	-7930
▁sunset	-7931
▁swords	-7932
▁capture	-7933
▁chapter	-7934
▁classes	-7935
▁develop	-7936
▁enchant	-7937
▁flaming	-7938
▁hurrying	-7939
▁piercing	-7940
▁stopping	-7941
▁swimming	-7942
▁countries	-7943
▁observing	-7944
▁Adeimantus	-7945
▁downstairs	-7946
▁tranquillity	-7947
lys	-7948
oir	-7949
zes	-7950
gain	-7951
keys	-7952
oups	-7953
resa	-7954
usal	-7955
▁182	-7956
▁Arm	-7957
▁Kur	-7958
▁tro	-7959
▁Capu	-7960
▁THIS	-7961
▁gulf	-7962
asting	-7963
minded	-7964
▁Pruss	-7965
▁Simon	-7966
▁Under	-7967
▁Venus	-7968
▁abode	-7969
▁accur	-7970
▁brisk	-7971
▁gleam	-7972
▁keeps	-7973
▁prose	-7974
▁sends	-7975
▁tales	-7976
▁Jordan	-7977
▁boldly	-7978
▁defeat	-7979
▁income	-7980
▁instit	-7981
▁jailer	-7982
▁lesson	-7983
▁murmur	-7984
▁offers	-7985
▁profit	-7986
▁riches	-7987
▁subtle	-7988
▁vulgar	-7989
▁washed	-7990
ferences	-7991
▁Bossuet	-7992
▁Hawkins	-7993
▁balloon	-7994
▁charged	-7995
▁discipl	-7996
▁examine	-7997
▁injured	-7998
▁propose	-7999
▁ringing	-8000
▁slender	-8001
▁temples	-8002
▁conceive	-8003
▁contents	-8004
▁counsels	-8005
▁payments	-8006
▁reminded	-8007
▁belonging	-8008
▁certainty	-8009
▁incapable	-8010
▁reference	-8011
▁statement	-8012
▁characters	-8013
▁Montfermeil	-8014
▁Netherfield	-8015
▁incessantly	-8016
▁necessarily	-8017
▁difficulties	-8018
3)	-8019
OLI	-8020
sar	-8021
hess	-8022
hind	-8023
ryph	-8024
▁BEN	-8025
▁Bog	-8026
▁Mel	-8027
▁ach	-8028
▁bee	-8029
▁hom	-8030
▁sho	-8031
▁stu	-8032
tends	-8033
▁asks	-8034
▁jaws	-8035
▁lake	-8036
▁meas	-8037
▁pool	-8038
Madame	-8039
ailing	-8040
ements	-8041
rating	-8042
▁Other	-8043
▁Peleg	-8044
▁WHICH	-8045
▁belly	-8046
▁brows	-8047
▁fount	-8048
▁goose	-8049
▁heels	-8050
▁infam	-8051
▁lucky	-8052
▁roads	-8053
▁screw	-8054
▁upset	-8055
▁Juliet	-8056
▁issued	-8057
▁joyous	-8058
▁landed	-8059
▁mouths	-8060
▁overth	-8061
▁velvet	-8062
▁answers	-8063
▁closing	-8064
▁enjoyed	-8065
▁gravely	-8066
necessary	-8067
▁arriving	-8068
▁awakened	-8069
▁combined	-8070
▁commence	-8071
▁cylinder	-8072
▁dwelling	-8073
▁foremost	-8074
▁hundreds	-8075
▁passages	-8076
▁relieved	-8077
▁sciences	-8078
▁apprehens	-8079
▁ascertain	-8080
▁democracy	-8081
▁favourite	-8082
▁obedience	-8083
▁practical	-8084
▁unwilling	-8085
▁advantages	-8086
▁marvellous	-8087
▁politeness	-8088
▁constitution	-8089
▁unexpectedly	-8090
Aye	-8091
MIT	-8092
_.”	-8093
umm	-8094
ées	-8095
▁16	-8096
bury	-8097
eyed	-8098
quar	-8099
reen	-8100
árov	-8101
▁Has	-8102
▁Med	-8103
▁jun	-8104
▁lip	-8105
▁pig	-8106
faced	-8107
ierce	-8108
ifies	-8109
▁Four	-8110
▁Holy	-8111
▁Past	-8112
▁XIII	-8113
▁foul	-8114
▁isol	-8115
▁nigh	-8116
▁proc	-8117
▁rein	-8118
oubted	-8119
porary	-8120
spring	-8121
vítski	-8122
▁Kitty	-8123
▁Lucas	-8124
▁dense	-8125
▁dilig	-8126
▁funny	-8127
▁intox	-8128
▁paint	-8129
▁rival	-8130
▁slope	-8131
▁Empire	-8132
▁ascend	-8133
▁butter	-8134
▁denied	-8135
▁mutual	-8136
▁prejud	-8137
▁region	-8138
▁rubles	-8139
▁spears	-8140
▁tragic	-8141
▁adopted	-8142
▁chanced	-8143
▁circles	-8144
▁connect	-8145
▁darling	-8146
▁dialect	-8147
▁invalid	-8148
▁landing	-8149
▁methods	-8150
▁secrets	-8151
▁selfish	-8152
▁torture	-8153
▁tremend	-8154
▁attained	-8155
▁betrayed	-8156
▁feverish	-8157
▁frowning	-8158
▁interrog	-8159
▁perished	-8160
▁reserved	-8161
▁services	-8162
▁startled	-8163
▁uttering	-8164
▁valuable	-8165
▁complying	-8166
▁attributed	-8167
▁arrangements	-8168
▁communication	-8169
▁Im	-8170
Give	-8171
emon	-8172
mosp	-8173
nant	-8174
▁Nay	-8175
▁Pip	-8176
▁bon	-8177
▁fan	-8178
▁pup	-8179
glass	-8180
icism	-8181
urred	-8182
▁Bene	-8183
▁Boul	-8184
▁ange	-8185
▁bars	-8186
▁imit	-8187
▁male	-8188
▁woes	-8189
▁Henry	-8190
▁deriv	-8191
▁droop	-8192
▁exert	-8193
▁exter	-8194
▁holds	-8195
▁moder	-8196
▁skull	-8197
▁spell	-8198
istered	-8199
natured	-8200
▁Signor	-8201
▁aboard	-8202
▁appeal	-8203
▁atmosp	-8204
▁dismay	-8205
▁heroic	-8206
▁ponder	-8207
▁shakes	-8208
▁Eumaeus	-8209
▁aroused	-8210
▁consist	-8211
▁dungeon	-8212
▁enlight	-8213
▁exposed	-8214
▁grieved	-8215
▁harbour	-8216
▁peoples	-8217
▁princes	-8218
▁sadness	-8219
▁whereon	-8220
▁domestic	-8221
▁frequent	-8222
▁majestic	-8223
▁propriet	-8224
▁purchase	-8225
▁solemnly	-8226
▁whalemen	-8227
▁withdrew	-8228
▁Nesvítski	-8229
▁delivered	-8230
▁contradict	-8231
▁limitation	-8232
▁threatening	-8233
▁characteristic	-8234
Dr	-8235
bb	-8236
ár	-8237
uil	-8238
▁_“	-8239
camp	-8240
gypt	-8241
▁Str	-8242
▁cub	-8243
▁dus	-8244
▁oak	-8245
▁rud	-8246
ardly	-8247
urned	-8248
ushes	-8249
▁Pole	-8250
▁Tsar	-8251
▁affl	-8252
▁crou	-8253
▁liqu	-8254
▁push	-8255
▁stif	-8256
▁user	-8257
▁Lives	-8258
▁admin	-8259
▁arrow	-8260
▁decre	-8261
▁diary	-8262
▁exped	-8263
▁grain	-8264
▁smart	-8265
▁swung	-8266
▁waved	-8267
henomen	-8268
ression	-8269
▁Should	-8270
▁artist	-8271
▁cheese	-8272
▁geomet	-8273
▁laying	-8274
▁leaped	-8275
▁maiden	-8276
▁mantle	-8277
▁scheme	-8278
▁simult	-8279
▁traged	-8280
▁warmth	-8281
▁Tydides	-8282
▁columns	-8283
▁counted	-8284
▁depends	-8285
▁effects	-8286
▁energet	-8287
▁exagger	-8288
▁expense	-8289
▁forming	-8290
▁happily	-8291
▁placing	-8292
▁sixteen	-8293
▁skilful	-8294
▁upwards	-8295
▁cemetery	-8296
▁critical	-8297
▁emotions	-8298
▁imperial	-8299
▁punished	-8300
▁surround	-8301
▁wondrous	-8302
▁Leviathan	-8303
▁appearing	-8304
▁earnestly	-8305
▁treasures	-8306
▁tremendous	-8307
▁exclamation	-8308
▁unnecessary	-8309
▁acknowledged	-8310
▁consequently	-8311
▁perspiration	-8312
la	-8313
May	-8314
OUR	-8315
ula	-8316
zel	-8317
▁12	-8318
arth	-8319
sole	-8320
————	-8321
▁200	-8322
▁ath	-8323
▁aye	-8324
▁cul	-8325
▁sex	-8326
dated	-8327
force	-8328
might	-8329
shine	-8330
trees	-8331
ucked	-8332
▁Bilí	-8333
▁Last	-8334
▁Véra	-8335
▁bisc	-8336
▁bowl	-8337
▁dict	-8338
▁leis	-8339
▁neat	-8340
▁plot	-8341
▁rele	-8342
▁slew	-8343
formed	-8344
ipping	-8345
rothed	-8346
▁demon	-8347
▁desol	-8348
▁hosts	-8349
▁plant	-8350
▁resol	-8351
▁Behind	-8352
▁cattle	-8353
▁insurg	-8354
▁remote	-8355
▁saving	-8356
▁watery	-8357
▁Beneath	-8358
▁Between	-8359
▁Bilíbin	-8360
▁altered	-8361
▁clasped	-8362
▁climbed	-8363
▁concept	-8364
▁fathers	-8365
▁opposed	-8366
▁partial	-8367
▁gracious	-8368
▁hospital	-8369
▁huntsman	-8370
▁interpre	-8371
▁mourning	-8372
▁phenomen	-8373
▁betrothed	-8374
▁gathering	-8375
▁royalties	-8376
▁supported	-8377
▁treatment	-8378
▁derivative	-8379
▁protection	-8380
▁insurrection	-8381
▁respectfully	-8382
▁neighbourhood	-8383
!)	-8384
);	-8385
Or	-8386
ba	-8387
gs	-8388
ART	-8389
dam	-8390
elf	-8391
esc	-8392
got	-8393
iot	-8394
rec	-8395
▁Mc	-8396
Phar	-8397
acon	-8398
asty	-8399
neas	-8400
rini	-8401
rise	-8402
▁Bus	-8403
▁Its	-8404
▁flu	-8405
Count	-8406
aeans	-8407
ieves	-8408
▁Desp	-8409
▁Life	-8410
▁Turn	-8411
▁bees	-8412
▁boot	-8413
▁bund	-8414
▁clut	-8415
▁echo	-8416
▁idle	-8417
▁parl	-8418
▁rows	-8419
▁yawn	-8420
illing	-8421
stones	-8422
terest	-8423
▁crush	-8424
▁etern	-8425
▁haunt	-8426
▁livid	-8427
▁mould	-8428
▁oppon	-8429
▁reins	-8430
▁shine	-8431
▁surre	-8432
▁sympt	-8433
Pharaon	-8434
ouncing	-8435
▁amidst	-8436
▁coffee	-8437
▁entity	-8438
▁exempt	-8439
▁helmet	-8440
▁insign	-8441
▁jewell	-8442
▁rarely	-8443
▁shores	-8444
▁vanity	-8445
quarters	-8446
▁avoided	-8447
▁deceive	-8448
▁prosper	-8449
▁realize	-8450
▁rightly	-8451
▁sharply	-8452
▁staying	-8453
▁weapons	-8454
▁conveyed	-8455
▁farewell	-8456
▁Presently	-8457
▁persuaded	-8458
▁spectacle	-8459
▁foundation	-8460
▁intentions	-8461
▁perfection	-8462
▁threatened	-8463
▁Monseigneur	-8464
6,	-8465
ST	-8466
.1.	-8467
.3,	-8468
.3.	-8469
ACH	-8470
kóv	-8471
▁14	-8472
▁Id	-8473
▁Ku	-8474
AMAG	-8475
OLIO	-8476
aeac	-8477
back	-8478
okes	-8479
umpt	-8480
▁Acc	-8481
▁FRI	-8482
▁Squ	-8483
▁cro	-8484
▁rhy	-8485
ILITY	-8486
MITED	-8487
Which	-8488
ainte	-8489
brows	-8490
▁Upon	-8491
▁gild	-8492
▁goss	-8493
▁outl	-8494
▁pink	-8495
▁pond	-8496
▁prim	-8497
▁sage	-8498
ducing	-8499
▁Chang	-8500
▁DAMAG	-8501
▁Luigi	-8502
▁banqu	-8503
▁eagle	-8504
▁fence	-8505
▁pilot	-8506
▁slipp	-8507
▁stamm	-8508
▁swine	-8509
▁trunk	-8510
▁uncon	-8511
▁Phaeac	-8512
▁chapel	-8513
▁deemed	-8514
▁donate	-8515
▁exquis	-8516
▁lonely	-8517
▁review	-8518
▁rights	-8519
▁saddle	-8520
▁sprung	-8521
▁verses	-8522
▁LIMITED	-8523
▁appreci	-8524
▁artific	-8525
▁benefit	-8526
▁footman	-8527
▁pushing	-8528
▁reduced	-8529
▁thicket	-8530
▁timidly	-8531
▁torrent	-8532
▁vehicle	-8533
mpossible	-8534
▁Achaeans	-8535
▁Pastrini	-8536
▁contains	-8537
▁indirect	-8538
▁sunshine	-8539
▁Something	-8540
▁occasions	-8541
▁redistrib	-8542
▁senseless	-8543
▁venerable	-8544
▁bewildered	-8545
▁compliment	-8546
▁successful	-8547
▁consolation	-8548
▁expectation	-8549
▁replacement	-8550
▁disagreeable	-8551
yá	-8552
Ant	-8553
IVE	-8554
UTI	-8555
boy	-8556
▁2.	-8557
▁Bo	-8558
▁Py	-8559
▁az	-8560
IGHT	-8561
THER	-8562
onor	-8563
pers	-8564
▁Bas	-8565
▁Out	-8566
▁Sal	-8567
▁Say	-8568
▁awe	-8569
▁egg	-8570
alles	-8571
roach	-8572
ulcan	-8573
▁bulk	-8574
▁dies	-8575
▁publ	-8576
▁tool	-8577
▁tops	-8578
▁tort	-8579
▁upro	-8580
ocious	-8581
teenth	-8582
▁Petit	-8583
▁await	-8584
▁bayon	-8585
▁burnt	-8586
▁drift	-8587
▁joint	-8588
▁milit	-8589
▁salon	-8590
▁silly	-8591
▁towns	-8592
▁bowing	-8593
▁bushes	-8594
▁copied	-8595
▁corpor	-8596
▁images	-8597
▁intend	-8598
▁recent	-8599
▁reluct	-8600
▁scarce	-8601
▁submit	-8602
▁waving	-8603
oubtedly	-8604
▁Aristot	-8605
▁deserve	-8606
▁elegant	-8607
▁gallant	-8608
▁gallery	-8609
▁howling	-8610
▁slumber	-8611
▁terrors	-8612
▁tonight	-8613
▁Parisian	-8614
▁doubtful	-8615
▁eyebrows	-8616
▁rapidity	-8617
▁retained	-8618
▁wandered	-8619
▁Benedetto	-8620
▁battalion	-8621
▁dissatisf	-8622
▁introduce	-8623
▁travelled	-8624
▁precaution	-8625
▁retreating	-8626
▁suspicious	-8627
7,	-8628
Le	-8629
UE	-8630
”,	-8631
bac	-8632
did	-8633
▁13	-8634
▁Ac	-8635
▁Ha	-8636
Only	-8637
alog	-8638
inth	-8639
olic	-8640
▁Bru	-8641
▁dew	-8642
▁pir	-8643
Saint	-8644
Shall	-8645
VOLIO	-8646
astle	-8647
atáev	-8648
pulch	-8649
▁Turk	-8650
▁chat	-8651
▁goal	-8652
▁lads	-8653
ctions	-8654
haired	-8655
▁folds	-8656
▁rises	-8657
▁unite	-8658
▁amazed	-8659
▁amused	-8660
▁groups	-8661
▁herald	-8662
▁jacket	-8663
▁occupy	-8664
▁dreamed	-8665
▁enthusi	-8666
▁faculty	-8667
▁orderly	-8668
▁sepulch	-8669
▁villain	-8670
▁winding	-8671
▁yielded	-8672
▁Alcinous	-8673
▁BENVOLIO	-8674
▁ambition	-8675
▁attempts	-8676
▁attorney	-8677
▁audience	-8678
▁dazzling	-8679
▁dragging	-8680
▁elephant	-8681
▁measures	-8682
▁murdered	-8683
▁supplied	-8684
▁arguments	-8685
▁exquisite	-8686
▁ferocious	-8687
▁offspring	-8688
▁respected	-8689
▁tormented	-8690
▁describing	-8691
▁generation	-8692
▁instrument	-8693
▁entertained	-8694
▁preparation	-8695
VEN	-8696
ata	-8697
bow	-8698
iac	-8699
ird	-8700
jac	-8701
▁Up	-8702
UTIO	-8703
ilet	-8704
ints	-8705
lini	-8706
sect	-8707
▁NOT	-8708
▁hay	-8709
▁sne	-8710
actly	-8711
cians	-8712
count	-8713
erald	-8714
erval	-8715
hered	-8716
shire	-8717
white	-8718
▁Bald	-8719
▁Love	-8720
▁THAT	-8721
▁bust	-8722
▁conj	-8723
▁nest	-8724
▁obli	-8725
▁oxen	-8726
▁tele	-8727
▁azure	-8728
▁embro	-8729
▁magic	-8730
▁paced	-8731
▁panic	-8732
▁patri	-8733
▁score	-8734
▁shaft	-8735
▁theft	-8736
▁veget	-8737
inently	-8738
▁Edward	-8739
▁affirm	-8740
▁bullet	-8741
▁career	-8742
▁divide	-8743
▁judges	-8744
▁pallor	-8745
▁slaves	-8746
▁stated	-8747
▁subter	-8748
▁tavern	-8749
▁transf	-8750
▁viewed	-8751
umerable	-8752
▁Capulet	-8753
▁Kurágin	-8754
▁attacks	-8755
▁blushed	-8756
▁dispute	-8757
▁doctors	-8758
▁doorway	-8759
▁edition	-8760
▁extingu	-8761
▁passers	-8762
▁pretext	-8763
▁seeming	-8764
▁shortly	-8765
▁Faubourg	-8766
▁Karatáev	-8767
▁MERCUTIO	-8768
▁converse	-8769
▁fourteen	-8770
▁falsehood	-8771
▁quivering	-8772
▁commanders	-8773
▁discipline	-8774
▁occupation	-8775
▁opposition	-8776
▁surprising	-8777
▁whatsoever	-8778
’;	-8779
nib	-8780
omb	-8781
▁ze	-8782
balt	-8783
bons	-8784
cuse	-8785
fact	-8786
oles	-8787
omte	-8788
ouss	-8789
▁(2)	-8790
▁Lat	-8791
▁XXI	-8792
▁tid	-8793
▁voc	-8794
Every	-8795
abled	-8796
othes	-8797
urday	-8798
urrah	-8799
▁Arab	-8800
▁ante	-8801
▁file	-8802
vation	-8803
▁Egypt	-8804
▁Night	-8805
▁analy	-8806
▁anter	-8807
▁blaze	-8808
▁evils	-8809
▁hovel	-8810
▁nails	-8811
▁newly	-8812
▁pages	-8813
▁scent	-8814
▁shell	-8815
▁spoil	-8816
atively	-8817
▁Doctor	-8818
▁Teresa	-8819
▁Vulcan	-8820
▁Wicked	-8821
▁bishop	-8822
▁coldly	-8823
▁cultiv	-8824
▁cursed	-8825
▁inches	-8826
▁raging	-8827
▁seamen	-8828
▁sheets	-8829
▁dazzled	-8830
▁grounds	-8831
▁lifting	-8832
▁policem	-8833
▁reverse	-8834
▁whistle	-8835
▁accounts	-8836
▁backward	-8837
▁daybreak	-8838
▁descends	-8839
▁indicate	-8840
▁invented	-8841
▁referred	-8842
▁retorted	-8843
▁uncommon	-8844
▁conceived	-8845
▁searching	-8846
▁spiritual	-8847
▁wandering	-8848
▁benefactor	-8849
▁insignific	-8850
▁passionate	-8851
▁questioned	-8852
▁respectful	-8853
▁strengthen	-8854
▁struggling	-8855
▁triumphant	-8856
▁application	-8857
▁catastrophe	-8858
▁innumerable	-8859
▁unconsciously	-8860
En	-8861
UC	-8862
aph	-8863
car	-8864
Some	-8865
fold	-8866
ière	-8867
mast	-8868
orus	-8869
post	-8870
riel	-8871
▁Cir	-8872
▁Tim	-8873
▁bea	-8874
▁coo	-8875
▁dug	-8876
▁enl	-8877
▁jet	-8878
▁lun	-8879
▁oft	-8880
▁tin	-8881
▁ult	-8882
olomy	-8883
▁Does	-8884
▁Five	-8885
▁Vien	-8886
▁beam	-8887
▁fath	-8888
▁fits	-8889
▁init	-8890
▁nost	-8891
atives	-8892
iation	-8893
ulties	-8894
▁FRIAR	-8895
▁Green	-8896
▁darts	-8897
▁delir	-8898
▁dined	-8899
▁hedge	-8900
▁mates	-8901
▁moist	-8902
▁scrap	-8903
▁stove	-8904
▁tobac	-8905
▁trump	-8906
▁vanqu	-8907
nothing	-8908
olomyès	-8909
▁Turtle	-8910
▁Tybalt	-8911
▁acting	-8912
▁advers	-8913
▁contro	-8914
▁divers	-8915
▁fulfil	-8916
▁hoping	-8917
▁stable	-8918
▁thrice	-8919
▁unseen	-8920
▁Emerald	-8921
▁Olympus	-8922
▁amusing	-8923
▁augment	-8924
▁bullets	-8925
▁chances	-8926
▁flashed	-8927
▁largest	-8928
▁persist	-8929
▁puzzled	-8930
▁sternly	-8931
▁writers	-8932
▁American	-8933
▁assassin	-8934
▁bulwarks	-8935
▁desirous	-8936
▁groaning	-8937
▁paradise	-8938
▁preoccup	-8939
▁sentinel	-8940
▁suitable	-8941
▁Aristotle	-8942
▁objection	-8943
▁preferred	-8944
▁stationed	-8945
▁whiteness	-8946
▁adventures	-8947
▁atmosphere	-8948
▁impatience	-8949
▁maintained	-8950
▁perceiving	-8951
▁respecting	-8952
▁embarrassed	-8953
▁respectable	-8954
▁wretchedness	-8955
15	-8956
TY	-8957
ás	-8958
’,	-8959
ROM	-8960
aet	-8961
ano	-8962
ems	-8963
jon	-8964
▁Ev	-8965
anny	-8966
▁Del	-8967
▁Hsi	-8968
▁LAW	-8969
▁Tem	-8970
▁pad	-8971
!...”	-8972
armes	-8973
isive	-8974
izard	-8975
smith	-8976
uated	-8977
▁Cons	-8978
▁brut	-8979
▁clad	-8980
▁fund	-8981
▁hadn	-8982
▁hing	-8983
▁intr	-8984
▁jury	-8985
▁mute	-8986
▁nail	-8987
▁tram	-8988
antime	-8989
ryphon	-8990
▁Catal	-8991
▁backs	-8992
▁clung	-8993
▁costs	-8994
▁debts	-8995
▁gamin	-8996
▁goats	-8997
▁issue	-8998
▁petty	-8999
▁rolls	-9000
▁thigh	-9001
▁thumb	-9002
▁weigh	-9003
▁groans	-9004
▁hasten	-9005
▁hearth	-9006
▁indisp	-9007
▁pounds	-9008
▁shower	-9009
▁theirs	-9010
▁trench	-9011
▁Livesey	-9012
▁carries	-9013
▁commiss	-9014
▁essence	-9015
▁furnish	-9016
▁handful	-9017
▁phantom	-9018
▁thieves	-9019
▁twisted	-9020
▁Saturday	-9021
▁educated	-9022
▁lowering	-9023
▁skeleton	-9024
▁wondered	-9025
▁wrinkled	-9026
▁customary	-9027
▁faculties	-9028
▁gymnastic	-9029
▁imitation	-9030
▁instances	-9031
▁neglected	-9032
▁philosoph	-9033
▁sparkling	-9034
▁forgetting	-9035
▁procession	-9036
▁resistance	-9037
▁grandmother	-9038
▁illustrious	-9039
▁acquaintances	-9040
▁establishment	-9041
.”—	-9042
OSE	-9043
cks	-9044
cut	-9045
noe	-9046
ora	-9047
pef	-9048
xem	-9049
▁SA	-9050
▁Tw	-9051
▁eh	-9052
ante	-9053
only	-9054
rawn	-9055
such	-9056
thus	-9057
▁Lou	-9058
▁dyn	-9059
▁fel	-9060
▁fug	-9061
▁gas	-9062
▁kne	-9063
erson	-9064
inged	-9065
overn	-9066
▁Lake	-9067
▁Mock	-9068
▁Tash	-9069
▁gale	-9070
▁impe	-9071
▁matt	-9072
castle	-9073
herent	-9074
oining	-9075
▁Luxem	-9076
▁abund	-9077
▁exper	-9078
▁faire	-9079
▁holes	-9080
▁maxim	-9081
▁miser	-9082
▁novel	-9083
▁ornam	-9084
▁physi	-9085
▁poems	-9086
▁revel	-9087
▁roofs	-9088
▁thund	-9089
idently	-9090
▁angels	-9091
▁bathed	-9092
▁bounds	-9093
▁bucket	-9094
▁carpet	-9095
▁coloss	-9096
▁growth	-9097
▁immort	-9098
▁induce	-9099
▁invari	-9100
▁meadow	-9101
▁oppose	-9102
▁plains	-9103
▁proofs	-9104
▁resent	-9105
▁serene	-9106
▁symbol	-9107
▁termed	-9108
▁Clerval	-9109
▁Spartan	-9110
▁endured	-9111
▁fearing	-9112
▁glowing	-9113
▁gravity	-9114
▁planted	-9115
▁praying	-9116
▁regards	-9117
▁satisfy	-9118
▁stirred	-9119
▁tobacco	-9120
▁joyfully	-9121
▁converted	-9122
▁enjoyment	-9123
▁personage	-9124
▁stammered	-9125
▁Luxembourg	-9126
▁penetrated	-9127
▁complicated	-9128
▁introduction	-9129
su	-9130
Car	-9131
gen	-9132
iem	-9133
isl	-9134
dled	-9135
gram	-9136
ican	-9137
ills	-9138
oubt	-9139
riar	-9140
rils	-9141
▁Jes	-9142
▁Use	-9143
▁XXX	-9144
▁shy	-9145
▁tub	-9146
allel	-9147
avour	-9148
heads	-9149
▁Germ	-9150
▁amus	-9151
▁belt	-9152
▁cure	-9153
▁dame	-9154
▁ejac	-9155
▁fasc	-9156
▁fist	-9157
▁knot	-9158
▁sket	-9159
▁subd	-9160
affold	-9161
alling	-9162
istocr	-9163
▁Murat	-9164
▁Nurse	-9165
▁Place	-9166
▁Think	-9167
▁accus	-9168
▁colle	-9169
▁coron	-9170
▁groom	-9171
▁hasty	-9172
▁sable	-9173
▁skirt	-9174
▁songs	-9175
▁vexed	-9176
oration	-9177
▁Busoni	-9178
▁Except	-9179
▁abomin	-9180
▁advise	-9181
▁arrows	-9182
▁awaken	-9183
▁compar	-9184
▁domain	-9185
▁flowed	-9186
▁ghosts	-9187
▁gloves	-9188
▁hammer	-9189
▁longed	-9190
▁paraly	-9191
▁scound	-9192
▁stupef	-9193
▁volume	-9194
▁weaker	-9195
▁dangers	-9196
▁discont	-9197
▁dislike	-9198
▁doubted	-9199
▁drowned	-9200
▁guarded	-9201
▁horrors	-9202
▁lessons	-9203
▁marched	-9204
▁mortals	-9205
▁prophet	-9206
▁thereby	-9207
▁victims	-9208
▁Everyone	-9209
▁Meantime	-9210
▁aristocr	-9211
▁delicacy	-9212
▁garments	-9213
▁proposal	-9214
▁scaffold	-9215
▁sunlight	-9216
▁animation	-9217
▁attendant	-9218
▁encourage	-9219
▁readiness	-9220
▁regarding	-9221
▁spreading	-9222
▁expressing	-9223
▁lieutenant	-9224
▁sentiments	-9225
withstanding	-9226
▁impatiently	-9227
▁superiority	-9228
▁disappointment	-9229
PAN	-9230
bes	-9231
ere	-9232
fit	-9233
ipt	-9234
▁3.	-9235
▁Bu	-9236
Jean	-9237
apse	-9238
cien	-9239
gian	-9240
iday	-9241
oons	-9242
open	-9243
▁Sec	-9244
▁Thé	-9245
▁Vol	-9246
▁Yan	-9247
▁exh	-9248
▁lee	-9249
▁map	-9250
anded	-9251
aning	-9252
bably	-9253
innie	-9254
mates	-9255
three	-9256
▁Cape	-9257
▁Mery	-9258
▁None	-9259
▁Pray	-9260
▁cash	-9261
▁dece	-9262
▁ench	-9263
▁genu	-9264
▁lieu	-9265
▁owns	-9266
digger	-9267
upiter	-9268
▁Maire	-9269
▁blade	-9270
▁draws	-9271
▁fiend	-9272
▁ineff	-9273
▁locks	-9274
▁louis	-9275
▁madam	-9276
▁range	-9277
▁union	-9278
▁Brujon	-9279
▁Church	-9280
▁Fierce	-9281
▁Thetis	-9282
▁Vienna	-9283
▁adding	-9284
▁nerves	-9285
▁provin	-9286
▁rubbed	-9287
▁sleepy	-9288
▁tasted	-9289
▁Charles	-9290
▁Meryton	-9291
▁bravest	-9292
▁nowhere	-9293
▁refusal	-9294
▁reigned	-9295
▁rewards	-9296
▁Although	-9297
▁catching	-9298
▁diamonds	-9299
▁dropping	-9300
▁replying	-9301
▁vicinity	-9302
▁Frenchmen	-9303
▁attempted	-9304
▁enveloped	-9305
▁interpret	-9306
▁resembles	-9307
▁swineherd	-9308
▁whistling	-9309
▁temperance	-9310
▁significant	-9311
▁dispositions	-9312
LI	-9313
vo	-9314
ya	-9315
ád	-9316
és	-9317
ARK	-9318
ban	-9319
mir	-9320
nut	-9321
rit	-9322
alus	-9323
bear	-9324
ieth	-9325
ifix	-9326
uary	-9327
▁Cal	-9328
▁lid	-9329
▁tut	-9330
RENCE	-9331
These	-9332
rowed	-9333
vaire	-9334
woman	-9335
▁Vict	-9336
▁bagg	-9337
▁desk	-9338
▁econ	-9339
▁feed	-9340
▁gasp	-9341
▁hare	-9342
▁hoof	-9343
▁lung	-9344
▁mock	-9345
bility	-9346
dering	-9347
ifully	-9348
▁Dutch	-9349
▁Frank	-9350
▁bells	-9351
▁defin	-9352
▁dusty	-9353
▁entry	-9354
▁globe	-9355
▁irreg	-9356
▁moves	-9357
▁rhyth	-9358
▁sweat	-9359
▁tiger	-9360
▁token	-9361
▁Winnie	-9362
▁commer	-9363
▁hounds	-9364
▁legisl	-9365
▁morrow	-9366
▁precip	-9367
▁reveal	-9368
▁sphere	-9369
▁visits	-9370
▁baggage	-9371
▁blowing	-9372
▁flatter	-9373
▁floated	-9374
▁forests	-9375
▁frowned	-9376
▁healthy	-9377
▁pretend	-9378
▁serving	-9379
▁warlike	-9380
▁Bonapart	-9381
▁LAWRENCE	-9382
▁approved	-9383
▁consists	-9384
▁covering	-9385
▁cupboard	-9386
▁marching	-9387
▁prioress	-9388
▁released	-9389
▁respects	-9390
▁shrugged	-9391
▁shutters	-9392
▁smallest	-9393
▁steadily	-9394
▁universe	-9395
▁Baptistin	-9396
▁Tholomyès	-9397
▁assistant	-9398
▁believing	-9399
▁gendarmes	-9400
▁prevailed	-9401
▁stockings	-9402
▁tradition	-9403
▁uncomfort	-9404
▁witnesses	-9405
▁Phaeacians	-9406
▁expressive	-9407
▁inevitable	-9408
▁transferred	-9409
11	-9410
TE	-9411
va	-9412
axe	-9413
cap	-9414
ipe	-9415
mor	-9416
ops	-9417
pro	-9418
Pray	-9419
bery	-9420
bors	-9421
clay	-9422
kers	-9423
ruck	-9424
shka	-9425
tego	-9426
wart	-9427
▁Add	-9428
▁Ros	-9429
athed	-9430
icpus	-9431
lemen	-9432
pires	-9433
ursed	-9434
▁Aunt	-9435
▁Dron	-9436
▁Hold	-9437
▁agon	-9438
▁cuir	-9439
▁grin	-9440
▁ratt	-9441
▁serp	-9442
▁void	-9443
athieu	-9444
▁Could	-9445
▁Flint	-9446
▁abhor	-9447
▁coinc	-9448
▁dares	-9449
▁incom	-9450
▁likes	-9451
▁metap	-9452
▁sixth	-9453
▁stake	-9454
▁verge	-9455
▁widow	-9456
▁wiped	-9457
atching	-9458
itively	-9459
▁Champs	-9460
▁Hatter	-9461
▁Pember	-9462
▁Philip	-9463
▁barbar	-9464
▁gladly	-9465
▁lawyer	-9466
▁livres	-9467
▁midday	-9468
▁repent	-9469
▁talent	-9470
▁vainly	-9471
▁Gryphon	-9472
▁Jupiter	-9473
▁bandits	-9474
▁citizen	-9475
▁cracked	-9476
▁inspire	-9477
▁marshal	-9478
▁prudent	-9479
▁renewed	-9480
▁seventh	-9481
▁solicit	-9482
▁stamped	-9483
▁thirsty	-9484
▁trained	-9485
▁Whatever	-9486
▁afforded	-9487
▁anteroom	-9488
▁careless	-9489
▁drooping	-9490
▁envelope	-9491
▁grandeur	-9492
▁monument	-9493
▁preceded	-9494
▁pressure	-9495
▁relating	-9496
▁speedily	-9497
▁training	-9498
▁Pemberley	-9499
▁adjoining	-9500
▁extending	-9501
▁horseback	-9502
▁operation	-9503
▁possesses	-9504
▁purchased	-9505
▁regiments	-9506
▁responded	-9507
▁struggled	-9508
▁willingly	-9509
▁detachment	-9510
▁sensations	-9511
▁tumultuous	-9512
▁whispering	-9513
▁accordingly	-9514
▁extinguished	-9515
▁irresistible	-9516
gi	-9517
ARD	-9518
OND	-9519
bru	-9520
has	-9521
pri	-9522
rus	-9523
uer	-9524
whe	-9525
▁DI	-9526
▁Je	-9527
Wait	-9528
hile	-9529
skin	-9530
▁Che	-9531
▁ecc	-9532
▁lam	-9533
▁nap	-9534
▁rug	-9535
arian	-9536
icide	-9537
lying	-9538
ograp	-9539
▁Bill	-9540
▁bald	-9541
▁bids	-9542
▁buzz	-9543
▁dial	-9544
▁fant	-9545
▁leap	-9546
▁melt	-9547
▁puts	-9548
▁reco	-9549
▁sets	-9550
▁swam	-9551
▁vile	-9552
mighty	-9553
twenty	-9554
▁Horse	-9555
▁Smoll	-9556
▁Spain	-9557
▁Trans	-9558
▁adorn	-9559
▁climb	-9560
▁fairy	-9561
▁pious	-9562
▁rigid	-9563
▁stole	-9564
▁verse	-9565
▁Basque	-9566
▁errors	-9567
▁humili	-9568
▁infall	-9569
▁pacing	-9570
▁strife	-9571
▁uproar	-9572
▁warned	-9573
▁blazing	-9574
▁islands	-9575
▁lacking	-9576
▁mixture	-9577
▁studies	-9578
▁subsequ	-9579
▁weighed	-9580
▁whoever	-9581
▁Minister	-9582
▁Tashtego	-9583
▁abstract	-9584
▁allusion	-9585
▁appetite	-9586
▁calmness	-9587
▁ceremony	-9588
▁civility	-9589
▁disaster	-9590
▁dreaming	-9591
▁elevated	-9592
▁inconven	-9593
▁measured	-9594
▁polished	-9595
▁research	-9596
▁restrict	-9597
▁selected	-9598
▁terribly	-9599
▁vigorous	-9600
▁continual	-9601
▁divisions	-9602
▁forbidden	-9603
▁honorable	-9604
▁inhabited	-9605
▁irregular	-9606
▁pretended	-9607
▁recommend	-9608
▁sorrowful	-9609
▁carelessly	-9610
▁displeased	-9611
▁indicating	-9612
▁personally	-9613
▁Thénardiers	-9614
▁harpooneers	-9615
▁hospitality	-9616
▁embarrassment	-9617
▁simultaneously	-9618
ADY	-9619
IOL	-9620
Was	-9621
iel	-9622
▁IS	-9623
▁Ma	-9624
▁Ye	-9625
gone	-9626
uity	-9627
▁IND	-9628
▁cud	-9629
▁doc	-9630
▁jer	-9631
▁les	-9632
▁lic	-9633
▁rou	-9634
▁vow	-9635
After	-9636
Would	-9637
▁Amph	-9638
▁Gold	-9639
▁Port	-9640
▁Toul	-9641
▁goat	-9642
▁paus	-9643
▁usur	-9644
estern	-9645
lysées	-9646
ridges	-9647
éevich	-9648
▁April	-9649
▁House	-9650
▁Laert	-9651
▁exile	-9652
▁knoll	-9653
▁punct	-9654
▁tenth	-9655
legraph	-9656
▁center	-9657
▁create	-9658
▁faster	-9659
▁hunted	-9660
▁judged	-9661
▁knight	-9662
▁louder	-9663
▁overfl	-9664
▁patter	-9665
▁prohib	-9666
▁quiver	-9667
▁ribbon	-9668
▁roared	-9669
▁snatch	-9670
▁statue	-9671
▁stores	-9672
ications	-9673
▁Justine	-9674
▁approve	-9675
▁balance	-9676
▁condemn	-9677
▁cuirass	-9678
▁descent	-9679
▁ecstasy	-9680
▁fancies	-9681
▁motives	-9682
▁remembr	-9683
▁shields	-9684
▁spectre	-9685
▁washing	-9686
▁Highness	-9687
▁articles	-9688
▁blessing	-9689
▁bursting	-9690
▁childish	-9691
▁curtains	-9692
▁security	-9693
▁stirring	-9694
▁vehicles	-9695
▁wrinkles	-9696
▁clearness	-9697
▁discussed	-9698
▁enchanted	-9699
▁hereafter	-9700
▁intending	-9701
▁provision	-9702
▁apparition	-9703
▁battalions	-9704
▁insurgents	-9705
▁objections	-9706
▁resembling	-9707
▁neighboring	-9708
▁resemblance	-9709
▁communicated	-9710
end	-9711
had	-9712
met	-9713
mid	-9714
▁Af	-9715
▁ah	-9716
▁cy	-9717
IOLA	-9718
cier	-9719
elix	-9720
▁501	-9721
▁Rem	-9722
achel	-9723
ansas	-9724
armed	-9725
comed	-9726
eches	-9727
erved	-9728
ilion	-9729
inger	-9730
itect	-9731
rical	-9732
rière	-9733
venue	-9734
▁Pass	-9735
▁Serv	-9736
▁Whit	-9737
▁bolt	-9738
▁borz	-9739
▁duck	-9740
▁hail	-9741
▁mans	-9742
▁nuns	-9743
▁prel	-9744
▁raft	-9745
▁ramp	-9746
▁sore	-9747
▁suck	-9748
bruary	-9749
uesday	-9750
urable	-9751
uteous	-9752
velled	-9753
▁brush	-9754
▁clums	-9755
▁gover	-9756
▁gross	-9757
▁liken	-9758
▁metal	-9759
▁outst	-9760
▁print	-9761
▁rings	-9762
▁slack	-9763
▁strip	-9764
▁tramp	-9765
▁unequ	-9766
PANIOLA	-9767
renched	-9768
▁Lucien	-9769
▁Peleus	-9770
▁Woking	-9771
▁Yanina	-9772
▁bandit	-9773
▁brandy	-9774
▁cudgel	-9775
▁drawer	-9776
▁enters	-9777
▁esteem	-9778
▁expend	-9779
▁guided	-9780
▁hearty	-9781
▁hinges	-9782
▁indist	-9783
▁learnt	-9784
▁needle	-9785
▁perman	-9786
▁revolt	-9787
▁rivers	-9788
▁robbed	-9789
▁temple	-9790
▁toilet	-9791
▁transp	-9792
oussaint	-9793
▁Barclay	-9794
▁dresses	-9795
▁frantic	-9796
▁imposed	-9797
▁oppress	-9798
▁secured	-9799
▁sharing	-9800
▁survive	-9801
▁theatre	-9802
▁alarming	-9803
▁capacity	-9804
▁effected	-9805
▁frontier	-9806
▁nostrils	-9807
▁proceeds	-9808
▁rattling	-9809
▁searched	-9810
▁softened	-9811
▁unworthy	-9812
▁villages	-9813
▁viscount	-9814
▁attentive	-9815
▁complaint	-9816
▁penetrate	-9817
▁residence	-9818
▁whirlwind	-9819
▁witnessed	-9820
▁HISPANIOLA	-9821
▁confession	-9822
▁discharged	-9823
▁prodigious	-9824
▁references	-9825
▁constructed	-9826
▁mechanically	-9827
.7	-9828
Tu	-9829
eus	-9830
olf	-9831
▁Pi	-9832
True	-9833
cend	-9834
edon	-9835
eter	-9836
iate	-9837
lass	-9838
oise	-9839
sell	-9840
▁202	-9841
▁Fin	-9842
▁Ori	-9843
▁Rom	-9844
▁viv	-9845
adays	-9846
anter	-9847
chest	-9848
dling	-9849
olyte	-9850
plete	-9851
these	-9852
▁Plum	-9853
▁York	-9854
▁acts	-9855
▁bite	-9856
▁bron	-9857
▁bury	-9858
▁canv	-9859
▁desc	-9860
▁irre	-9861
▁keel	-9862
▁limb	-9863
▁orph	-9864
▁seal	-9865
▁soup	-9866
▁tack	-9867
aneous	-9868
encies	-9869
retion	-9870
uteuil	-9871
▁Pylos	-9872
▁alley	-9873
▁brist	-9874
▁chall	-9875
▁dimly	-9876
▁irony	-9877
▁plump	-9878
▁Kansas	-9879
▁Merion	-9880
▁ambush	-9881
▁crowns	-9882
▁discon	-9883
▁escort	-9884
▁impass	-9885
▁intrig	-9886
▁lesser	-9887
▁sleigh	-9888
▁tyrann	-9889
▁wasted	-9890
▁assault	-9891
▁bargain	-9892
▁disgust	-9893
▁fishery	-9894
▁imitate	-9895
▁inherit	-9896
▁kissing	-9897
▁leisure	-9898
▁protest	-9899
▁railway	-9900
▁reserve	-9901
▁scatter	-9902
▁seventy	-9903
▁strikes	-9904
▁sunrise	-9905
▁swaying	-9906
▁tragedy	-9907
▁Antinous	-9908
▁National	-9909
▁chariots	-9910
▁	-9911
e	-9912
t	-9913
o	-9914
a	-9915
s	-9916
n	-9917
h	-9918
i	-9919
r	-9920
d	-9921
l	-9922
u	-9923
m	-9924
c	-9925
w	-9926
f	-9927
g	-9928
,	-9929
y	-9930
p	-9931
b	-9932
.	-9933
v	-9934
k	-9935
<	-9936
>	-9937
I	-9938
T	-9939
“	-9940
”	-9941
A	-9942
’	-9943
;	-9944
H	-9945
M	-9946
-	-9947
S	-9948
x	-9949
P	-9950
W	-9951
?	-9952
C	-9953
B	-9954
E	-9955
!	-9956
j	-9957
N	-9958
O	-9959
q	-9960
R	-9961
—	-9962
D	-9963
G	-9964
F	-9965
L	-9966
:	-9967
z	-9968
Y	-9969
_	-9970
V	-9971
J	-9972
‘	-9973
1	-9974
U	-9975
é	-9976
"	-9977
0	-9978
á	-9979
(	-9980
)	-9981
K	-9982
ó	-9983
2	-9984
[	-9985
]	-9986
í	-9987
3	-9988
8	-9989
X	-9990
è	-9991
5	-9992
*	-9993
4	-9994
6	-9995
7	-9996
